<unk>	0
<s>	0
</s>	0
<pad>	0
▁の	-3.00744
▁は	-3.23293
▁に	-3.37615
▁た	-3.66025
▁で	-3.7157
▁を	-3.74036
▁が	-3.89741
▁て	-4.0103
▁と	-4.23145
▁し	-4.30533
▁	-4.49185
▁も	-4.59468
▁ある	-4.59621
▁いる	-4.70928
▁1	-4.79577
▁れ	-4.8605
▁さ	-4.89536
▁する	-4.98506
▁2	-5.17318
▁年	-5.20556
▁な	-5.23963
▁・	-5.29794
▁0	-5.34844
▁から	-5.40624
▁この	-5.46504
▁えー	-5.47773
▁こと	-5.53317
▁9	-5.53807
▁として	-5.59313
▁ない	-5.70271
っ	-5.76762
▁れる	-5.77582
▁い	-5.77821
▁その	-5.7908
月	-5.81029
▁3	-5.88261
▁なっ	-5.89989
▁また	-5.93213
▁です	-5.94192
▁や	-6.07814
▁4	-6.09846
▁人	-6.13778
▁5	-6.14724
▁これ	-6.14917
▁日	-6.16809
▁後	-6.17282
▁8	-6.18427
▁的	-6.18566
▁という	-6.21469
▁え	-6.23663
▁など	-6.24622
▁なる	-6.26866
▁6	-6.28515
▁ん	-6.2933
▁よう	-6.29757
▁7	-6.29867
▁ます	-6.30825
▁あっ	-6.31551
▁もの	-6.31919
▁ま	-6.32298
▁日本	-6.32315
▁以下	-6.35869
▁か	-6.41668
▁中	-6.56061
▁へ	-6.56552
▁あの	-6.59474
▁者	-6.59567
▁だ	-6.60838
▁られ	-6.61059
▁あのー	-6.61275
▁一	-6.61677
▁現在	-6.64235
▁ため	-6.67516
▁第	-6.72848
▁まで	-6.73437
▁その後	-6.75556
▁市	-6.77713
▁時	-6.77869
▁主	-6.82196
し	-6.82398
▁しかし	-6.83062
▁本	-6.83221
▁まー	-6.83743
▁まし	-6.84945
つ	-6.85156
▁ね	-6.86764
▁より	-6.8924
▁だっ	-6.89272
▁について	-6.89457
▁によって	-6.90826
▁活動	-6.90866
▁あり	-6.91474
い	-6.91488
▁それ	-6.93866
▁られる	-6.9621
ん	-6.98714
▁初	-7.00052
▁部	-7.01123
▁により	-7.01533
▁二	-7.02676
▁時代	-7.03354
▁次	-7.03867
▁県	-7.05166
▁できる	-7.05732
▁大学	-7.07975
▁大	-7.09569
▁多く	-7.11281
▁なかっ	-7.11926
▁家	-7.15111
▁作品	-7.15463
▁同	-7.15744
▁彼	-7.17238
▁場合	-7.17654
ら	-7.19792
▁多い	-7.22005
さ	-7.22437
▁による	-7.25357
▁州	-7.2663
▁上	-7.28315
▁化	-7.29309
▁位	-7.2954
▁同年	-7.31264
▁行わ	-7.31515
▁数	-7.32248
▁歳	-7.32648
▁回	-7.33253
▁性	-7.3448
▁駅	-7.34893
▁三	-7.35137
▁存在	-7.3663
▁国	-7.37031
▁全	-7.373
▁戦	-7.37593
▁放送	-7.39064
▁東京	-7.39232
▁なお	-7.39478
▁世界	-7.39863
▁前	-7.4022
▁名	-7.41107
▁他	-7.42088
▁内	-7.42942
▁研究	-7.43928
▁学	-7.44941
▁使用	-7.4559
▁通り	-7.45941
▁のみ	-7.46251
▁行っ	-7.46527
▁あ	-7.47091
▁各	-7.47478
▁映画	-7.48804
▁元	-7.4956
▁学校	-7.49832
大学	-7.50285
▁務め	-7.50662
▁お	-7.50755
▁所属	-7.51611
▁出場	-7.51851
▁代表	-7.53142
▁長	-7.53454
▁番組	-7.53771
▁軍	-7.54166
▁語	-7.55648
▁なく	-7.56054
▁において	-7.56378
▁見	-7.56593
▁う	-7.56677
▁地	-7.57313
▁会	-7.59018
▁新	-7.59296
▁下	-7.59891
▁中心	-7.60652
▁卒業	-7.61038
▁一覧	-7.61245
▁でき	-7.61727
▁位置	-7.62328
▁時間	-7.63923
▁十	-7.64128
▁可能	-7.64253
▁ば	-7.6521
▁アメリカ	-7.65346
▁これら	-7.66273
▁町	-7.66362
▁えーと	-7.66403
▁方	-7.66996
▁ここ	-7.67018
▁とか	-7.67772
▁登場	-7.68648
▁関係	-7.6885
か	-7.69641
▁何	-7.69668
▁なり	-7.69828
▁における	-7.70028
▁あー	-7.7124
▁高校	-7.71835
▁地域	-7.72076
▁生まれ	-7.73715
▁そして	-7.74497
▁一部	-7.74684
▁出演	-7.74996
▁けれども	-7.76513
▁でも	-7.76534
▁試合	-7.76537
▁いく	-7.77506
田	-7.7778
▁用い	-7.78553
▁版	-7.78592
▁私	-7.78704
▁間	-7.79354
▁郡	-7.79467
▁チーム	-7.79995
▁知ら	-7.80432
▁担当	-7.81851
▁ただし	-7.82069
▁受け	-7.82149
▁高	-7.82273
▁選手	-7.82459
▁音楽	-7.82601
▁一つ	-7.82829
▁北	-7.82912
▁作	-7.84056
▁ゲーム	-7.84744
▁利用	-7.85142
▁問題	-7.85243
に	-7.85619
▁結果	-7.85707
▁大会	-7.87051
▁体	-7.87485
▁一般	-7.87897
▁同じ	-7.87911
▁参照	-7.88023
ま	-7.88118
▁行う	-7.89093
▁テレビ	-7.89129
▁目	-7.89191
▁持つ	-7.89303
▁参加	-7.90019
▁呼ば	-7.90162
▁度	-7.90308
▁おり	-7.90762
▁優勝	-7.91204
▁曲	-7.91836
▁約	-7.91885
▁区	-7.92248
▁型	-7.93017
▁今	-7.9313
▁以降	-7.93521
▁A	-7.9388
▁ず	-7.942
▁だけ	-7.94405
・	-7.9457
▁き	-7.95302
▁特に	-7.95927
▁等	-7.96171
▁異なる	-7.9626
▁点	-7.96748
▁頃	-7.97003
▁開始	-7.97271
▁種	-7.97319
▁活躍	-7.97521
▁専門	-7.9759
▁引退	-7.9775
▁法	-7.97822
▁当時	-7.97942
▁発売	-7.98255
▁デビュー	-7.98812
▁発表	-7.98993
わ	-7.99743
の	-7.99953
▁っていう	-8.00045
▁分	-8.00433
▁父	-8.01252
▁考え	-8.01665
▁さらに	-8.01716
▁もう	-8.01774
▁いう	-8.01981
▁例	-8.02098
▁機	-8.03079
▁および	-8.03476
▁形	-8.03831
▁系	-8.03835
▁氏	-8.04498
内	-8.04558
▁非常	-8.04559
▁必要	-8.04609
▁教育	-8.04763
▁水	-8.0509
▁おー	-8.05369
▁記録	-8.05447
1	-8.05871
▁最初	-8.05891
▁賞	-8.062
て	-8.06459
▁てる	-8.06596
▁言う	-8.06936
▁正	-8.07592
▁都市	-8.08008
体	-8.08432
川	-8.08459
▁両	-8.08729
▁会社	-8.08841
▁中国	-8.08884
▁四	-8.08991
▁せ	-8.09425
▁設置	-8.09472
▁リーグ	-8.1018
▁そういう	-8.10224
が	-8.10328
た	-8.10397
▁式	-8.10412
▁ので	-8.10631
▁所	-8.11112
▁シーズン	-8.11129
▁ドイツ	-8.11136
▁期	-8.11167
▁出	-8.11281
▁五	-8.12112
▁以外	-8.12658
▁全て	-8.12922
▁シリーズ	-8.13238
▁部分	-8.13346
▁ところ	-8.13362
▁開催	-8.13671
▁監督	-8.13796
▁情報	-8.14673
0	-8.14749
▁子	-8.14759
▁に関する	-8.14767
▁イギリス	-8.15145
▁フランス	-8.15236
▁特徴	-8.15289
▁影響	-8.15301
▁初めて	-8.15495
▁それぞれ	-8.15635
▁開発	-8.15785
▁こう	-8.15851
▁生まれる	-8.15868
2	-8.15898
▁出身	-8.16064
▁最も	-8.16225
▁モデル	-8.16669
▁話	-8.16903
▁就任	-8.1705
▁す	-8.17523
▁契約	-8.17551
▁西	-8.17737
▁風	-8.17856
▁年間	-8.18011
▁南	-8.18826
▁代	-8.19452
▁同様	-8.20294
地	-8.21221
▁移籍	-8.21384
く	-8.21538
▁最後	-8.21599
▁とも	-8.21625
▁いずれ	-8.21832
▁使わ	-8.22113
▁種類	-8.23115
▁大きな	-8.23176
▁線	-8.23524
▁場	-8.23666
▁構成	-8.24054
▁側	-8.24099
▁訳	-8.24167
▁変更	-8.24262
▁趣味	-8.2459
▁バス	-8.24909
▁歴史	-8.2495
▁東	-8.25061
▁高い	-8.25542
▁旧	-8.25797
▁官	-8.26049
▁ちょっと	-8.26108
▁手	-8.26154
▁山	-8.26338
▁舞台	-8.26594
▁用	-8.26684
▁車	-8.26745
国	-8.26799
▁鉄道	-8.26825
▁経	-8.26975
▁野球	-8.27226
▁ほとんど	-8.27477
▁始め	-8.27572
▁たち	-8.27602
▁自分	-8.27814
▁様々	-8.27873
▁人物	-8.28032
▁以上	-8.28057
▁よく	-8.28344
▁獲得	-8.28584
で	-8.28674
▁って	-8.28771
▁色	-8.28775
▁方法	-8.28911
▁けども	-8.29026
かっ	-8.29609
▁国際	-8.30384
▁中央	-8.30865
▁世紀	-8.30956
▁女性	-8.31081
▁終了	-8.3152
▁に対して	-8.31802
▁内容	-8.32075
▁物	-8.32312
▁その他	-8.32442
▁販売	-8.32875
▁メンバー	-8.3307
▁プロ	-8.33607
▁重要	-8.33638
▁基本	-8.33957
▁社会	-8.34149
▁事業	-8.34556
▁制作	-8.34556
▁始める	-8.34641
▁受賞	-8.34743
▁委員	-8.34809
▁大きく	-8.34847
▁思い	-8.35012
▁多数	-8.35189
間	-8.35514
▁施設	-8.35574
▁にて	-8.35862
▁地方	-8.35922
▁.	-8.36207
▁号	-8.36508
▁よ	-8.36943
▁教授	-8.37019
▁持	-8.37035
▁ながら	-8.37155
▁とき	-8.37632
▁路線	-8.37805
▁そこ	-8.37854
▁子供	-8.37971
▁死去	-8.38074
▁そのー	-8.38333
部	-8.38422
▁別	-8.38603
▁アルバム	-8.38797
▁大阪	-8.39017
▁小	-8.3908
れ	-8.39109
▁けど	-8.39467
▁アメリカ合衆国	-8.39538
▁局	-8.39552
▁生活	-8.39621
▁たい	-8.39678
▁場所	-8.39871
▁母	-8.39999
▁ほか	-8.40228
▁意味	-8.40294
▁生	-8.40324
▁システム	-8.40361
▁彼女	-8.41168
▁挙げ	-8.41354
者	-8.41881
▁戦争	-8.41932
▁示す	-8.42127
▁経済	-8.42752
▁王	-8.42878
▁以後	-8.42981
▁近	-8.4319
▁自身	-8.43453
▁なら	-8.43772
り	-8.4398
面	-8.44642
要	-8.44926
▁グループ	-8.44981
▁収録	-8.45086
▁無	-8.45332
▁キャラクター	-8.45684
▁たり	-8.4572
▁名前	-8.45858
▁最終	-8.46119
る	-8.46518
▁進学	-8.46526
山	-8.4683
▁評価	-8.47163
▁公式	-8.47174
▁地区	-8.47547
き	-8.47721
▁不明	-8.47879
▁英語	-8.48106
▁事	-8.48379
▁えーっと	-8.48493
▁一方	-8.48498
▁アニメ	-8.48892
▁島	-8.49462
▁副	-8.49483
▁級	-8.49613
▁すべて	-8.49728
▁選手権	-8.49968
▁艦	-8.50007
▁川	-8.50025
▁公開	-8.50124
▁力	-8.50245
▁再	-8.50282
▁み	-8.50289
▁最大	-8.5031
▁分類	-8.50798
▁文化	-8.5085
▁花	-8.50923
▁状態	-8.50981
▁ドラマ	-8.51011
▁道	-8.51092
▁経験	-8.52474
原	-8.52613
▁いい	-8.52635
▁得	-8.52673
▁娘	-8.52674
▁いっ	-8.52788
▁変化	-8.52869
▁構造	-8.52946
▁サッカー	-8.53083
▁オリンピック	-8.53208
▁勝	-8.5344
▁実際	-8.53625
▁通常	-8.54145
▁まず	-8.54297
▁時期	-8.5454
▁当	-8.54589
中	-8.547
▁そう	-8.5484
▁村	-8.54946
▁分布	-8.55075
は	-8.55104
▁結婚	-8.55462
▁続け	-8.5573
▁企業	-8.55926
▁高等	-8.56037
▁番	-8.56095
▁下記	-8.56096
▁金	-8.56394
▁日本語	-8.56401
▁入り	-8.56559
▁スポーツ	-8.56706
▁機能	-8.56917
▁多	-8.57046
▁先	-8.57222
▁残	-8.57263
▁ニューヨーク	-8.57304
▁ホーム	-8.576
▁機関	-8.57662
▁言語	-8.57701
▁有	-8.57768
▁海	-8.57905
▁全国	-8.58047
▁外	-8.58233
▁政府	-8.58493
▁含	-8.58609
▁文	-8.58725
▁説明	-8.5879
▁ほぼ	-8.58873
野	-8.59112
▁ロシア	-8.59151
▁幼	-8.59699
▁事件	-8.59763
▁国内	-8.60164
▁書	-8.6019
▁万	-8.60252
▁音	-8.60353
▁クラブ	-8.60423
▁史	-8.60432
▁ヨーロッパ	-8.60608
▁計画	-8.61002
方	-8.61032
ば	-8.61173
▁漫画	-8.61302
▁社	-8.61327
▁入っ	-8.61504
▁公	-8.61641
▁発生	-8.61786
▁量	-8.61795
▁運動	-8.6203
▁面	-8.62121
▁競技	-8.62125
▁詳細	-8.62169
▁父親	-8.62303
▁管理	-8.62476
位	-8.62635
▁復帰	-8.6278
▁うち	-8.63126
▁記述	-8.63307
▁決定	-8.63443
▁員	-8.63579
▁ほど	-8.63625
▁かつて	-8.63712
▁表	-8.63855
▁選	-8.63876
▁際	-8.63904
▁率	-8.63918
▁組織	-8.6397
▁小学校	-8.64112
▁指定	-8.64459
▁務める	-8.64496
▁好き	-8.64529
▁目的	-8.64913
▁メジャー	-8.64931
▁政治	-8.65175
▁関連	-8.65252
▁攻撃	-8.65533
▁設定	-8.65623
▁とおり	-8.65724
▁に対する	-8.66104
▁都	-8.66154
▁当初	-8.66172
▁年代	-8.66366
▁現役	-8.66394
▁人間	-8.66395
▁運行	-8.66439
▁翌年	-8.66605
▁複数	-8.66849
▁城	-8.67245
▁与え	-8.67379
▁果たし	-8.67439
▁会長	-8.67665
▁自由	-8.68015
▁由来	-8.68271
▁対象	-8.68318
完全	-8.68373
▁実	-8.68394
▁例えば	-8.68611
▁制	-8.6867
▁演奏	-8.68781
▁じゃ	-8.69012
▁技術	-8.69182
▁議員	-8.69406
▁建設	-8.6953
▁勝利	-8.69768
▁同時に	-8.69778
▁実施	-8.6981
▁対応	-8.7022
▁仕事	-8.70809
▁再び	-8.71041
▁作曲	-8.71245
▁名称	-8.71426
▁期間	-8.71649
▁やっ	-8.71687
▁入る	-8.71742
▁夏	-8.72111
▁自	-8.72479
性	-8.72559
▁生産	-8.72823
▁入団	-8.72863
▁為	-8.72871
▁運営	-8.72912
▁街	-8.72947
院	-8.73087
▁店	-8.73107
▁デザイン	-8.73154
▁総	-8.73288
▁表記	-8.73302
▁及び	-8.73543
▁石	-8.7357
的	-8.73665
▁全体	-8.73768
▁権	-8.73804
▁小説	-8.7384
▁教会	-8.74046
▁歌	-8.74279
▁科	-8.74362
▁言わ	-8.74406
▁に関して	-8.74445
▁向け	-8.75017
▁分野	-8.75104
▁イタリア	-8.75197
▁んー	-8.75517
▁周辺	-8.75615
▁ごと	-8.75621
▁中学校	-8.75656
▁イベント	-8.75721
▁または	-8.75798
▁道路	-8.75924
▁車両	-8.76114
▁列車	-8.76266
▁学生	-8.76386
▁海軍	-8.76608
州	-8.76694
▁それから	-8.76779
▁タイトル	-8.76914
▁続い	-8.76957
▁右	-8.77111
▁人口	-8.77203
▁重	-8.77437
▁ませ	-8.7752
▁設立	-8.77624
▁妻	-8.77943
▁八	-8.78043
▁製造	-8.78186
力	-8.78274
▁協会	-8.78492
▁選出	-8.78757
▁シングル	-8.78838
▁値	-8.78976
▁円	-8.79002
▁六	-8.79045
軍	-8.79185
▁調査	-8.79248
▁環境	-8.79373
▁有名	-8.79427
▁団体	-8.79445
▁ぐらい	-8.79702
▁選挙	-8.79729
▁採用	-8.79783
▁たら	-8.79933
▁産業	-8.80151
▁江戸	-8.80214
▁条件	-8.80324
▁言っ	-8.80338
▁実験	-8.80353
▁撮影	-8.80457
▁音声	-8.80461
▁南部	-8.80827
▁主義	-8.80836
▁葉	-8.81186
▁現	-8.81252
▁百	-8.81597
と	-8.81611
▁神	-8.81617
▁木	-8.81737
▁民	-8.81973
▁のち	-8.82275
▁製作	-8.82703
▁センター	-8.82747
年	-8.82918
▁出版	-8.82956
▁論	-8.8301
▁特技	-8.83429
々	-8.83441
▁こちら	-8.83773
▁展開	-8.83914
▁形式	-8.84114
▁昇格	-8.84185
▁死	-8.84188
▁階	-8.84194
▁戦後	-8.842
▁枚	-8.84236
▁動物	-8.84313
▁独立	-8.84408
▁市内	-8.84501
島	-8.84548
▁定義	-8.84687
▁成功	-8.84839
▁記事	-8.84951
▁にとって	-8.85016
▁京都	-8.85104
▁科学	-8.85199
▁達	-8.85232
線	-8.85259
▁記載	-8.8533
海	-8.85549
▁馬	-8.85725
▁人気	-8.85848
▁描	-8.859
▁派	-8.8594
▁指導	-8.85991
▁植物	-8.86125
▁家族	-8.86221
▁最高	-8.86603
▁生息	-8.86659
▁通	-8.86713
▁連続	-8.86834
▁唯一	-8.87157
▁述べ	-8.87486
▁夜	-8.87667
▁写真	-8.88394
▁左	-8.88423
▁藩	-8.8854
度	-8.88652
▁交通	-8.88698
▁自然	-8.88959
▁バンド	-8.89105
作	-8.89126
▁事務所	-8.8914
▁文学	-8.89256
▁せる	-8.89393
式	-8.89458
▁とともに	-8.89654
▁初期	-8.89709
▁経営	-8.9006
▁長男	-8.9011
▁ライブ	-8.9019
▁入学	-8.90229
▁建築	-8.90394
▁理由	-8.9051
▁相	-8.9068
▁取得	-8.90742
▁表現	-8.90916
▁公園	-8.91116
▁近年	-8.91339
▁少ない	-8.91424
▁かなり	-8.91441
▁戦闘	-8.91443
▁しまう	-8.91804
▁団	-8.91895
▁巻	-8.91937
▁紹介	-8.92023
▁使っ	-8.92198
▁あるいは	-8.92511
▁明治	-8.92849
▁ラジオ	-8.93039
▁冬	-8.93081
▁世	-8.93318
▁行政	-8.93345
▁強い	-8.93577
▁俳優	-8.93796
手	-8.93891
▁料理	-8.93921
▁業	-8.94055
▁うー	-8.94153
▁F	-8.94561
▁普通	-8.94579
▁特別	-8.94885
▁項目	-8.95128
▁朝	-8.95208
▁二つ	-8.95245
▁空港	-8.95271
▁んで	-8.95313
▁一番	-8.95326
▁設計	-8.95425
も	-8.95503
▁違い	-8.95542
▁項	-8.95696
▁不	-8.95965
▁観光	-8.96036
▁企画	-8.96523
▁移動	-8.96526
▁各地	-8.96587
▁年生	-8.9672
▁すぐ	-8.96796
▁言葉	-8.96906
▁住宅	-8.97263
▁提供	-8.97386
▁群	-8.97414
▁姿	-8.97426
▁病院	-8.9746
▁発見	-8.97517
子	-8.97569
▁特	-8.97694
▁平	-8.97727
▁準	-8.97748
生	-8.97816
▁日本人	-8.97966
▁営業	-8.98024
▁プレー	-8.98137
▁北部	-8.98162
▁現代	-8.98272
▁受ける	-8.98345
東	-8.98479
▁北海道	-8.98686
▁登録	-8.98695
▁個人	-8.98771
▁リリース	-8.98856
▁以前	-8.99072
大	-8.99203
▁韓国	-8.99454
▁サービス	-8.9951
▁未	-8.99565
▁女子	-8.99694
▁B	-8.99758
▁誕生	-8.99766
▁基	-8.99872
▁効果	-9.00148
▁くる	-9.00313
数	-9.00339
▁警察	-9.00395
▁作家	-9.00436
▁説	-9.00532
▁言い	-9.00704
▁非	-9.00781
▁状況	-9.00786
▁確認	-9.00791
▁フリー	-9.00819
▁帰国	-9.00928
▁拠点	-9.01107
▁予定	-9.01236
木	-9.01346
▁親	-9.01395
▁両親	-9.01626
ー	-9.01646
▁程度	-9.0191
▁船	-9.01989
▁思っ	-9.02035
井	-9.02129
▁建物	-9.02144
▁中学	-9.02189
▁開	-9.02215
▁スペイン	-9.02503
▁部隊	-9.02685
▁在	-9.02841
日本	-9.02945
▁七	-9.02975
▁無い	-9.03176
▁オリジナル	-9.03307
▁CD	-9.03421
▁含む	-9.03516
▁過去	-9.03578
▁従	-9.03689
▁役	-9.03777
▁規模	-9.03781
▁声	-9.03786
上	-9.03789
▁光	-9.03795
▁そんな	-9.03833
▁学習	-9.03916
▁新しい	-9.03917
▁こういう	-9.04041
▁松	-9.0425
▁さん	-9.04377
▁発展	-9.04438
▁テーマ	-9.04512
▁血	-9.04531
▁分け	-9.04562
▁近く	-9.0463
▁翌	-9.04845
▁隊	-9.04868
▁廃止	-9.04971
▁海外	-9.0499
▁着	-9.05161
▁母親	-9.05241
▁地元	-9.05275
▁自動車	-9.05308
▁品	-9.05415
▁あまり	-9.05511
▁進出	-9.05581
▁パリ	-9.05707
▁春	-9.05714
▁表示	-9.05844
▁しか	-9.05872
▁国家	-9.05964
▁あたる	-9.06022
▁陸軍	-9.06052
▁順	-9.06062
▁ロンドン	-9.06144
▁どう	-9.0619
後	-9.06267
▁勤務	-9.06315
▁口	-9.06448
▁試験	-9.06645
▁楽曲	-9.06859
▁J	-9.07012
▁安	-9.07265
▁呼ぶ	-9.07404
▁サイト	-9.07488
▁成	-9.07535
▁付け	-9.07679
▁頭	-9.07742
▁ど	-9.07776
▁秋	-9.07983
▁総合	-9.08047
▁男	-9.08068
▁登板	-9.08091
ズ	-9.08183
▁食	-9.08217
▁といった	-9.08506
▁末	-9.08622
▁校	-9.08665
▁ツアー	-9.08849
▁農業	-9.08899
▁心	-9.08946
▁航空	-9.08953
▁長い	-9.09196
▁形成	-9.09213
▁始ま	-9.09216
▁声優	-9.09618
時	-9.09738
▁兄	-9.0999
▁R	-9.09999
▁選択	-9.10047
▁息子	-9.1011
▁行動	-9.10115
▁見る	-9.10487
▁カナダ	-9.10522
▁院	-9.10684
▁歴任	-9.10744
▁そこで	-9.10753
▁原作	-9.10758
▁男性	-9.10763
▁最	-9.10783
▁館	-9.10896
▁ピアノ	-9.11088
▁会議	-9.11345
▁周	-9.11429
▁能力	-9.11457
▁室	-9.11592
じ	-9.11594
▁原因	-9.11672
▁入社	-9.11887
-	-9.11966
▁感じ	-9.1211
▁近い	-9.1224
▁番目	-9.12323
▁星	-9.12459
▁区間	-9.12548
ン	-9.12683
▁毛	-9.12766
▁状	-9.13007
戦	-9.13074
▁配信	-9.13107
▁宇宙	-9.13176
▁黒	-9.13191
▁認め	-9.13258
▁そのまま	-9.13387
▁毎年	-9.13488
▁映像	-9.13614
外	-9.13618
代	-9.13639
▁まま	-9.13715
▁m	-9.13729
▁工業	-9.13814
▁類	-9.13844
▁広	-9.13964
▁弟	-9.14013
▁アジア	-9.1404
▁制度	-9.1408
▁ステージ	-9.14082
▁それで	-9.14087
▁守	-9.14509
▁雑誌	-9.14565
▁大きい	-9.1457
▁終わ	-9.14572
▁比較的	-9.14572
▁こ	-9.14887
▁加え	-9.14973
▁立	-9.14981
▁橋	-9.15079
▁反応	-9.15082
▁えっ	-9.15119
業	-9.15403
▁駅舎	-9.15457
▁広く	-9.15482
▁女	-9.15494
▁福	-9.15556
▁カード	-9.15621
▁と共に	-9.15634
▁組	-9.15705
▁背	-9.15945
▁やっぱり	-9.15999
▁整備	-9.16046
▁台湾	-9.16123
▁武	-9.16769
▁レース	-9.16861
▁連邦	-9.16949
▁帝国	-9.17011
▁方式	-9.17023
▁図	-9.17023
▁学ぶ	-9.17025
▁解説	-9.17097
▁レギュラー	-9.17143
▁単語	-9.17185
▁来	-9.17187
▁本社	-9.17249
▁まだ	-9.17308
▁貢献	-9.17322
▁オーストラリア	-9.17475
▁思う	-9.17476
▁限り	-9.1749
▁カラー	-9.17495
▁インド	-9.17514
▁専攻	-9.17549
▁%	-9.17654
▁古	-9.17739
ル	-9.17753
▁認識	-9.17776
▁追加	-9.17853
▁赤	-9.17897
行	-9.18039
▁編集	-9.18081
▁省	-9.18207
▁真	-9.18283
▁家庭	-9.18394
▁公演	-9.18463
▁要素	-9.18542
▁教	-9.18549
車	-9.18681
▁白	-9.18728
▁工場	-9.18773
▁移住	-9.18999
▁直	-9.19137
▁府	-9.19143
▁いたし	-9.19172
▁ファン	-9.19277
▁藤	-9.19441
▁しまっ	-9.19453
▁平均	-9.1946
ト	-9.1948
▁新聞	-9.19543
▁以来	-9.19615
▁任	-9.19771
▁発	-9.19946
▁流	-9.20002
▁女優	-9.20002
▁導入	-9.20081
▁流れ	-9.20119
ス	-9.20163
▁敵	-9.20223
▁設け	-9.20247
み	-9.20293
▁cm	-9.20313
▁株式会社	-9.20334
▁戻	-9.20349
▁低	-9.20417
▁書い	-9.20498
▁掲載	-9.20625
▁運転	-9.20678
▁物語	-9.20699
本	-9.20885
▁戦い	-9.20967
▁迎え	-9.21012
▁分析	-9.21096
▁先程	-9.21098
▁にかけて	-9.21295
▁小さな	-9.21393
▁いー	-9.21432
▁圏	-9.21539
長	-9.21594
▁尾	-9.21658
▁法人	-9.21957
▁神社	-9.22152
▁本当に	-9.22389
▁記念	-9.22481
▁行く	-9.22489
▁社長	-9.22542
▁独	-9.22623
▁ローマ	-9.22735
▁完成	-9.22756
▁そういった	-9.22879
▁九	-9.22902
▁執筆	-9.22916
▁域	-9.2303
▁次に	-9.23278
▁計算	-9.23558
▁ひとつ	-9.23627
▁限定	-9.23641
▁製	-9.23647
▁単	-9.23989
▁示し	-9.24189
▁横浜	-9.24223
けれ	-9.24238
▁D	-9.24238
▁夫	-9.24259
▁今日	-9.24277
用	-9.24344
▁報告	-9.24365
▁佐	-9.24389
▁成績	-9.24474
▁色々	-9.24563
▁寺	-9.24597
▁半	-9.24708
▁製品	-9.24719
▁広島	-9.2511
▁データ	-9.25228
▁名古屋	-9.25256
▁少年	-9.25279
▁途中	-9.25346
格	-9.25462
▁上記	-9.25523
▁しばしば	-9.25525
▁部門	-9.25551
▁データー	-9.26007
▁関数	-9.26009
▁具	-9.26086
▁年度	-9.26124
▁対	-9.26177
▁クラス	-9.26179
▁進	-9.2619
▁事故	-9.2625
▁コーナー	-9.26351
▁駐	-9.26474
▁足	-9.26498
▁それら	-9.26647
▁解散	-9.26661
▁加入	-9.26745
▁さまざま	-9.2676
▁伴い	-9.26791
▁兄弟	-9.2682
▁共同	-9.2683
▁少し	-9.26852
▁大統領	-9.26888
▁記	-9.26977
▁逆	-9.27048
▁傾向	-9.2741
▁結局	-9.27415
▁時点	-9.27437
▁生物	-9.27466
▁投手	-9.27498
▁空	-9.27545
▁青	-9.27703
回	-9.27884
▁C	-9.27953
▁あれ	-9.28
▁使う	-9.28004
▁編成	-9.28083
▁通称	-9.28083
▁M	-9.28131
▁成長	-9.28267
▁在学	-9.28518
▁作ら	-9.28598
▁発行	-9.286
▁置	-9.28735
▁反	-9.28932
▁党	-9.28972
▁地球	-9.29001
▁国立	-9.29293
▁芸術	-9.29409
▁FC	-9.29417
▁ただ	-9.29495
▁業務	-9.29526
▁死亡	-9.29607
▁開幕	-9.29608
▁直接	-9.2961
▁土	-9.29636
▁レベル	-9.29709
▁支援	-9.29778
▁本部	-9.29791
▁連合	-9.29955
▁清	-9.30047
▁西部	-9.30082
▁銀行	-9.30086
▁入れ	-9.30273
コ	-9.30332
▁欧	-9.30413
▁天	-9.30453
▁今回	-9.30513
▁差	-9.30519
▁太平洋	-9.30536
▁だろ	-9.30556
▁相手	-9.30719
▁つまり	-9.30873
▁理事	-9.30899
▁決勝	-9.30934
▁アナウンサー	-9.30964
▁初代	-9.31025
▁商業	-9.31164
▁方向	-9.31225
村	-9.31412
▁宗教	-9.3142
▁結成	-9.31422
▁出し	-9.31472
▁台	-9.31655
▁得点	-9.31795
▁文字	-9.31856
▁東部	-9.31857
口	-9.31935
▁米	-9.32015
▁NHK	-9.32089
▁全員	-9.32446
▁積	-9.32826
▁やや	-9.32843
▁通信	-9.32863
▁マン	-9.3297
立	-9.33145
藤	-9.33146
▁べき	-9.33277
を	-9.33284
▁いわゆる	-9.33537
▁横	-9.33593
▁褐色	-9.33607
▁挙げる	-9.3366
▁急	-9.33679
重	-9.33697
▁退団	-9.33706
▁電話	-9.33793
▁手法	-9.33817
▁帯	-9.34015
▁生徒	-9.34063
前	-9.34105
▁やはり	-9.34125
▁化学	-9.34145
▁福岡	-9.34156
▁学会	-9.34316
▁講師	-9.3433
▁結	-9.34354
▁トップ	-9.34394
▁大学院	-9.34428
▁用いる	-9.34429
▁千葉	-9.34967
▁得意	-9.34978
▁電気	-9.35163
日	-9.35216
▁タイプ	-9.35273
▁信	-9.35508
札	-9.35567
▁JR	-9.35598
▁空間	-9.35714
ちら	-9.35785
▁議会	-9.3592
▁自動	-9.35929
▁作っ	-9.3595
▁政策	-9.35956
▁DVD	-9.36016
▁朝鮮	-9.36037
気	-9.36046
▁兵	-9.36064
▁劇場	-9.36426
▁病	-9.36464
▁博物館	-9.36473
▁節	-9.36479
▁指揮	-9.36503
▁強	-9.36613
▁店舗	-9.36686
▁研究所	-9.36753
▁九州	-9.36807
▁属する	-9.3687
▁理論	-9.36896
▁旅行	-9.36904
▁残し	-9.36925
▁役割	-9.37054
▁原	-9.37055
▁コーチ	-9.37072
▁コース	-9.37522
▁改	-9.3754
▁無料	-9.37617
▁共通	-9.37702
▁国民	-9.37765
▁障害	-9.37793
▁電	-9.37832
▁CM	-9.38005
▁主演	-9.38268
▁名誉	-9.38358
▁付近	-9.38446
▁制限	-9.38462
▁主人公	-9.38505
▁求め	-9.38516
▁処理	-9.38599
▁参戦	-9.38728
▁食べる	-9.38741
▁エンジン	-9.3878
室	-9.38787
▁メイン	-9.38789
少	-9.38813
▁史上	-9.38852
▁km	-9.39005
▁界	-9.39155
▁盤	-9.39234
外国	-9.39324
民	-9.39472
▁労働	-9.39487
▁成立	-9.39489
▁週間	-9.39588
自	-9.39634
▁続く	-9.39678
▁とても	-9.39751
▁番号	-9.39794
液	-9.39841
▁資格	-9.39856
▁共和	-9.39909
▁演劇	-9.39948
▁住ん	-9.39956
▁盛ん	-9.39979
▁取締役	-9.40199
▁県内	-9.40205
▁特定	-9.40241
▁大戦	-9.40291
議	-9.40398
▁ベスト	-9.40399
▁地名	-9.404
▁作戦	-9.40402
▁ぶり	-9.40438
▁低い	-9.40498
▁翻訳	-9.40518
▁ポジション	-9.40582
書	-9.40631
▁ら	-9.40707
▁歌手	-9.40833
▁野	-9.40862
▁単位	-9.40925
▁脚本	-9.41009
▁師	-9.41139
▁増加	-9.41188
▁作る	-9.41255
▁輸送	-9.41283
▁身	-9.41312
▁全く	-9.41336
▁従事	-9.4139
ヤ	-9.41398
▁到着	-9.41475
▁弾	-9.41481
▁階級	-9.41485
ア	-9.41534
▁X	-9.41662
米	-9.41663
▁会員	-9.41747
▁装置	-9.41864
▁商品	-9.41865
▁劇	-9.41895
▁ルール	-9.41951
茎	-9.4205
▁開業	-9.42171
▁保護	-9.4225
▁レコード	-9.42482
▁スタート	-9.42549
▁超	-9.42567
▁地下	-9.42618
▁美術	-9.42635
▁オランダ	-9.42638
▁いわ	-9.42796
▁人々	-9.4282
▁プレイヤー	-9.42857
▁祭	-9.42894
▁果たす	-9.42894
▁絵	-9.42934
▁器	-9.43105
▁御	-9.43168
▁刊行	-9.43321
▁市民	-9.43353
▁板	-9.43417
▁転向	-9.43419
▁ニュース	-9.43432
▁反対	-9.4363
▁形態	-9.43712
府	-9.43834
▁作成	-9.44034
▁離れ	-9.44049
▁距離	-9.44064
沢	-9.44231
▁図書館	-9.44287
▁画	-9.44314
▁更に	-9.44329
▁市長	-9.44404
▁留学	-9.44592
▁太	-9.4471
▁比較	-9.44875
▁行なっ	-9.44904
▁客	-9.4493
▁幾	-9.44993
▁塩	-9.45079
▁メディア	-9.45122
政	-9.45132
▁高く	-9.45166
▁同社	-9.45179
▁古代	-9.45317
▁エネルギー	-9.45322
▁ストーリー	-9.45535
▁か月	-9.4556
▁異	-9.45715
▁共	-9.45719
▁大型	-9.45755
▁将軍	-9.45881
▁持ち	-9.45914
▁細胞	-9.4601
▁高速	-9.46038
A	-9.46079
▁ユダ	-9.46103
▁展示	-9.46103
▁法律	-9.4611
ながら	-9.46211
▁気	-9.46214
▁比べ	-9.46342
▁治療	-9.46405
▁沖縄	-9.46506
▁専用	-9.46608
▁博士	-9.46609
▁長く	-9.46663
▁自体	-9.46683
▁継続	-9.47014
▁資料	-9.47421
▁年齢	-9.47616
▁内閣	-9.47626
▁拡大	-9.47728
▁モード	-9.47832
▁対戦	-9.4795
▁森	-9.48
▁気候	-9.4814
▁スタジオ	-9.48236
▁話者	-9.48349
▁タイ	-9.48372
▁湖	-9.48391
▁定	-9.4853
▁昭和	-9.4855
▁オープン	-9.48583
▁決め	-9.48608
▁士	-9.48776
▁演出	-9.48861
▁大陸	-9.48875
▁住民	-9.4896
▁電子	-9.48982
▁明らか	-9.49129
▁最近	-9.49176
▁武器	-9.49181
▁考える	-9.49202
▁方面	-9.49244
として	-9.49293
▁小さい	-9.49345
▁装備	-9.49485
▁どの	-9.49622
▁関東	-9.4965
▁こうした	-9.49691
▁被害	-9.49695
▁ビル	-9.49725
▁称	-9.49792
▁概念	-9.49901
▁似	-9.50015
▁指す	-9.50055
人	-9.50076
▁古い	-9.50095
なっ	-9.50513
▁飛行	-9.5052
▁芸能	-9.50615
C	-9.5063
物	-9.50813
▁段階	-9.50955
頭	-9.51056
▁幕	-9.5126
▁教師	-9.51437
▁僕	-9.51601
▁相当	-9.51808
▁ビデオ	-9.51903
▁始まる	-9.51952
▁河	-9.51967
▁遺	-9.52094
▁感	-9.52153
▁市立	-9.52175
▁政	-9.52188
▁工事	-9.52343
▁職	-9.52355
▁作詞	-9.52453
▁千	-9.52456
季	-9.52588
▁在住	-9.52661
▁出る	-9.52673
▁誌	-9.5275
制	-9.52805
▁簡単	-9.52876
▁事実	-9.52886
下	-9.53001
▁失	-9.53067
▁出来る	-9.53097
▁ギター	-9.53161
▁ござい	-9.53161
▁港	-9.53172
▁在籍	-9.53202
▁作業	-9.53217
▁ゲスト	-9.53272
▁ポイント	-9.53275
▁規定	-9.53308
▁常	-9.53379
▁連載	-9.53417
▁予選	-9.53525
▁英	-9.53654
▁ソ	-9.53729
▁伝統	-9.53742
▁ダンス	-9.53784
▁直後	-9.53891
▁カリフォルニア	-9.53895
▁良い	-9.53922
▁昇進	-9.53961
▁扱う	-9.54002
▁転じ	-9.54005
▁調	-9.54023
▁機械	-9.54068
▁南北	-9.54086
戦争	-9.54087
▁失敗	-9.54178
▁記す	-9.54198
▁和	-9.54212
▁聖	-9.54248
▁メーカー	-9.54284
▁基準	-9.5429
▁含め	-9.5435
▁配置	-9.544
▁大半	-9.54525
▁短い	-9.54603
▁得る	-9.54679
▁批判	-9.54835
▁屋	-9.54963
▁先生	-9.55092
▁犬	-9.551
▁熱	-9.55394
▁学者	-9.55399
▁自ら	-9.55462
▁アカデミー	-9.55509
庁	-9.55545
▁支配	-9.55587
▁思わ	-9.55607
▁アフリカ	-9.55729
▁若	-9.55738
▁特殊	-9.5583
▁著作	-9.55831
▁後半	-9.55874
▁わずか	-9.56002
▁でし	-9.56042
▁羽	-9.56069
▁スター	-9.56278
▁軍事	-9.56441
▁系統	-9.56501
▁観	-9.56552
▁観測	-9.5661
▁違う	-9.56742
▁代目	-9.56747
▁色んな	-9.56785
▁搭載	-9.56834
▁根	-9.56879
▁支持	-9.56947
▁大体	-9.57132
▁有する	-9.57152
▁話題	-9.57289
▁座	-9.57401
▁当選	-9.57402
▁イラスト	-9.57424
▁機体	-9.57438
▁速度	-9.57492
▁リスト	-9.57498
▁練習	-9.5751
▁陸上	-9.5752
▁王座	-9.57631
▁合わせ	-9.57734
▁候補	-9.57746
▁先発	-9.57749
▁鉄	-9.57802
▁技	-9.57854
▁ロサンゼルス	-9.57876
▁標準	-9.57946
▁提案	-9.58076
▁藩主	-9.58096
▁宗	-9.58206
▁大臣	-9.58251
▁なんか	-9.58287
▁個体	-9.58328
▁ホテル	-9.5833
▁土地	-9.58455
極	-9.58475
▁太陽	-9.58534
▁協力	-9.58535
▁創設	-9.58874
道	-9.58935
▁建て	-9.59157
▁操作	-9.59336
▁岩	-9.59449
ある	-9.59536
▁連	-9.5956
▁ベース	-9.59577
▁でしょ	-9.5958
▁ア	-9.59583
▁源	-9.59623
▁豊	-9.59733
▁米国	-9.59951
▁所在	-9.60132
進	-9.6016
▁ブラジル	-9.6024
質	-9.60254
▁民族	-9.60502
▁インターネット	-9.60527
▁訓練	-9.60606
▁再開	-9.60609
▁機会	-9.60763
▁イメージ	-9.60946
▁栽培	-9.60956
▁神戸	-9.60967
▁スーパー	-9.61049
▁破壊	-9.61073
▁革命	-9.61073
▁市場	-9.61106
▁関西	-9.61185
岸	-9.61324
▁プロジェクト	-9.61466
期	-9.61472
▁イングランド	-9.61494
▁感染	-9.61545
▁まとめ	-9.61546
▁学科	-9.61617
▁えと	-9.6163
▁枠	-9.61654
▁愛称	-9.61661
星	-9.61699
▁競馬	-9.61728
▁いただき	-9.61759
▁黄色	-9.61763
▁領	-9.61953
リーグ	-9.6199
▁丁目	-9.62015
▁属し	-9.62025
▁進行	-9.6203
▁所有	-9.62032
▁集	-9.62117
▁を通じて	-9.62118
▁述べる	-9.62331
▁防衛	-9.62369
▁現存	-9.62372
▁運用	-9.62374
▁行き	-9.62484
▁至る	-9.62508
▁薬	-9.62555
出	-9.62621
▁本人	-9.62635
▁進め	-9.62672
▁取っ	-9.62788
▁ひ	-9.62811
▁哲学	-9.62965
▁小型	-9.62981
動	-9.6306
▁投票	-9.63083
▁にわた	-9.63135
▁砲	-9.63195
▁管轄	-9.63321
▁推定	-9.63322
理	-9.63335
▁大き	-9.63356
▁主張	-9.63363
▁中継	-9.63365
▁〜	-9.63438
▁ソロ	-9.63487
▁ページ	-9.63497
▁地上	-9.63571
▁付き	-9.63642
▁字	-9.63648
合	-9.63671
▁医療	-9.63801
▁姓	-9.63933
▁したがって	-9.63937
▁行	-9.63954
▁腹	-9.63984
▁育つ	-9.6399
▁部長	-9.63991
▁報道	-9.64041
▁徳	-9.64129
▁アーティスト	-9.64182
▁達成	-9.64294
名	-9.64334
▁手術	-9.64538
▁顔	-9.64591
▁キャリア	-9.64624
▁割	-9.64762
▁緑	-9.64891
▁減少	-9.64893
▁同じく	-9.65015
▁生成	-9.65029
▁学部	-9.65044
▁みたい	-9.65089
▁保存	-9.65134
▁食べ	-9.65182
▁黄	-9.65214
▁起こ	-9.65226
▁王国	-9.65233
▁海岸	-9.65414
営	-9.65555
▁アイルランド	-9.65588
▁国道	-9.65591
▁誰	-9.65867
▁アイテム	-9.65878
▁向か	-9.66014
▁合成	-9.66111
材	-9.66145
▁連盟	-9.66359
▁原則	-9.66362
▁パターン	-9.66372
▁きっかけ	-9.66581
来	-9.66594
▁注目	-9.66608
▁精神	-9.66731
▁進む	-9.66743
▁購入	-9.66854
▁領域	-9.66982
▁次男	-9.66993
▁こうして	-9.67098
▁前後	-9.67127
▁首都	-9.67228
▁孫	-9.67325
▁隣接	-9.67352
▁定期	-9.67363
▁付	-9.67417
場	-9.67611
▁離婚	-9.67852
▁いき	-9.67854
▁適用	-9.67861
▁終わり	-9.67955
▁合	-9.68099
▁メキシコ	-9.68124
▁統合	-9.68228
▁男子	-9.68246
▁用語	-9.68264
▁ロック	-9.68358
▁没	-9.68558
▁ラグビー	-9.68577
▁カトリック	-9.68602
社	-9.68692
▁置く	-9.68774
▁作り	-9.68814
▁自己	-9.68859
▁愛	-9.68946
▁合格	-9.68994
▁所在地	-9.69077
▁表す	-9.69154
▁ポーランド	-9.69234
▁議論	-9.6924
谷	-9.69269
▁内部	-9.69277
▁地帯	-9.69291
▁扱	-9.69307
▁プレイ	-9.69319
▁丸	-9.69321
▁児童	-9.69365
▁夢	-9.69386
▁交換	-9.69434
▁みんな	-9.69555
▁やすい	-9.69602
▁解析	-9.6962
▁単独	-9.69748
▁植	-9.69799
▁視	-9.7
▁繁殖	-9.70003
▁首相	-9.70003
▁艦隊	-9.70035
▁弁護士	-9.70064
▁!	-9.70136
▁度目	-9.70168
▁路	-9.70174
▁長崎	-9.70177
▁本名	-9.70185
▁範囲	-9.70195
▁目標	-9.70389
▁敗れ	-9.70397
▁プログラム	-9.70523
▁忠	-9.70623
▁マイナー	-9.70746
見	-9.70779
▁少なく	-9.70843
▁ハイ	-9.70879
▁北西	-9.70942
▁入	-9.71
▁ランキング	-9.71025
▁章	-9.71078
▁模様	-9.71171
▁かも	-9.71287
▁はじめ	-9.71292
▁くれ	-9.71362
器	-9.71374
▁神奈川	-9.71481
▁温泉	-9.71561
▁変わっ	-9.71642
▁系列	-9.71687
▁応じ	-9.71742
▁静岡	-9.71812
▁東北	-9.71836
▁両方	-9.71851
▁性格	-9.72042
▁競走	-9.72072
▁働	-9.72122
▁帝	-9.72142
▁億	-9.7221
▁同日	-9.7221
▁ゴルフ	-9.72263
▁T	-9.72334
▁ソ連	-9.7252
▁ヒット	-9.72565
員	-9.72592
▁出現	-9.72601
▁各種	-9.72649
▁区分	-9.72705
▁縁	-9.72888
▁健康	-9.72898
界	-9.72929
▁来日	-9.73024
▁林	-9.73044
▁深	-9.73059
▁作用	-9.73078
▁連絡	-9.73122
▁発電	-9.73127
▁送	-9.73192
ろ	-9.73262
▁集団	-9.73275
▁終戦	-9.73393
▁三つ	-9.73516
って	-9.73675
便	-9.73761
▁香港	-9.73785
囲	-9.73804
▁自治体	-9.73805
▁強く	-9.73814
▁物理	-9.73942
▁古く	-9.73978
▁宮	-9.73995
▁北京	-9.74063
▁南西	-9.74078
▁伝え	-9.74079
▁ネット	-9.741
▁自転車	-9.74112
▁劇団	-9.74194
尾	-9.74322
▁現象	-9.74322
▁帰	-9.74416
▁停止	-9.7445
▁発達	-9.74461
▁悪	-9.74506
▁集め	-9.74539
▁走	-9.74604
▁表明	-9.74728
▁セット	-9.74795
▁裏	-9.74801
▁柔道	-9.74853
▁管	-9.74911
▁魚	-9.74916
▁すれ	-9.7495
▁ジャンル	-9.74953
互	-9.74958
系	-9.7514
▁安全	-9.75264
▁過ご	-9.75279
▁どこ	-9.75329
▁仕様	-9.75392
▁エリア	-9.75488
▁ダム	-9.75534
▁諸	-9.7556
鰭	-9.75581
▁N	-9.75634
▁ころ	-9.75795
▁学園	-9.7588
▁太字	-9.75937
規	-9.75981
▁性質	-9.76008
▁我々	-9.76071
▁もと	-9.76177
文	-9.76306
所	-9.76332
▁任務	-9.76347
▁バージョン	-9.76476
▁制御	-9.7648
▁バスケットボール	-9.76505
▁角	-9.7651
▁友人	-9.76629
多く	-9.76631
▁軸	-9.76631
▁ソフト	-9.76748
▁シーン	-9.76834
▁スタッフ	-9.7686
▁禁止	-9.76888
▁有効	-9.76891
類	-9.76949
▁基地	-9.7695
衆	-9.77064
▁検査	-9.77119
▁卵	-9.77136
▁パーセント	-9.77148
▁ライン	-9.77161
▁ワールド	-9.77185
▁若い	-9.77198
▁タレント	-9.77261
▁スウェーデン	-9.77303
▁一緒	-9.77313
▁会場	-9.77514
▁壁	-9.77558
▁裁判所	-9.77619
▁昔	-9.77669
▁産	-9.77674
▁起用	-9.77721
▁カップ	-9.7778
▁中世	-9.77851
賀	-9.77855
▁動き	-9.77896
▁異な	-9.77909
▁将	-9.77917
▁伝	-9.77948
▁接続	-9.7799
▁オーストリア	-9.77992
▁開設	-9.77992
▁券	-9.78101
限	-9.78129
▁河川	-9.78169
▁に対し	-9.784
▁尚	-9.78457
事	-9.78458
県立	-9.78468
▁通過	-9.78549
▁公共	-9.7855
▁テスト	-9.78551
▁数学	-9.7857
▁区域	-9.78571
▁跡	-9.7862
▁紙	-9.78688
▁実現	-9.78689
▁なさ	-9.78716
▁限	-9.78737
▁レ	-9.78775
▁精	-9.78842
▁なし	-9.78866
▁ユーザー	-9.79071
▁医学	-9.79096
▁加盟	-9.79105
崎	-9.79149
▁層	-9.79187
▁雌	-9.79263
▁列	-9.79286
▁今後	-9.79289
▁被	-9.79329
▁オ	-9.79353
▁早稲田大学	-9.79518
▁確率	-9.79527
▁勝ち	-9.79585
▁頭部	-9.79608
急	-9.79647
▁殆ど	-9.79668
▁設備	-9.79668
▁変換	-9.79669
▁多様	-9.79674
▁検索	-9.79809
▁郎	-9.79812
▁背景	-9.79812
▁議長	-9.79816
▁チャート	-9.79833
▁置い	-9.79875
▁安定	-9.79956
▁姉	-9.79987
▁出来	-9.80039
▁埼玉	-9.80091
先端	-9.80118
▁亡くな	-9.8017
▁衆	-9.80196
▁余	-9.80329
▁江	-9.80365
▁継承	-9.80375
▁注意	-9.80376
▁新潟	-9.80381
▁じ	-9.80461
▁核	-9.80476
▁移転	-9.80518
▁事務	-9.80522
▁発話	-9.80524
▁引き続	-9.80529
▁従来	-9.80533
▁一時	-9.80641
▁骨	-9.8066
▁国境	-9.80674
▁トイレ	-9.80721
▁冠	-9.80721
▁分かれ	-9.80737
▁義	-9.80906
▁ジョン	-9.81016
臓	-9.81029
▁言え	-9.81031
▁継	-9.81035
▁交流	-9.81092
▁過程	-9.81231
え	-9.81341
▁大変	-9.81405
流	-9.81438
▁ベルリン	-9.81472
宅	-9.81532
▁定め	-9.81616
▁ワシントン	-9.81639
▁難	-9.81648
▁知識	-9.81661
▁球団	-9.81806
▁退職	-9.81807
う	-9.81809
▁政党	-9.81812
▁ずつ	-9.81828
▁H	-9.81908
▁広告	-9.81953
▁アイドル	-9.82048
▁バック	-9.82259
▁南東	-9.82315
▁男女	-9.82395
▁渡	-9.82443
▁かけ	-9.82446
▁基礎	-9.82527
せ	-9.82758
▁G	-9.82765
法	-9.82785
▁残る	-9.82793
▁バレーボール	-9.82958
▁復活	-9.82963
▁大使館	-9.83028
▁部屋	-9.8306
▁挑戦	-9.8311
▁良く	-9.83202
▁取り	-9.83209
▁流れる	-9.83209
▁比	-9.83257
▁酒	-9.83368
▁行ない	-9.83368
▁つけ	-9.83372
編	-9.83387
▁装	-9.8339
▁天皇	-9.83461
▁分かり	-9.83485
▁トラック	-9.83556
▁強化	-9.83564
▁全部	-9.836
▁増え	-9.83645
▁与える	-9.83666
▁結構	-9.83694
▁続ける	-9.83702
▁漢	-9.8376
▁講演	-9.83841
▁用意	-9.83853
▁プロレス	-9.83943
▁常に	-9.83951
音	-9.83967
▁分割	-9.83992
水	-9.84052
▁園	-9.84059
▁適	-9.84061
▁スキー	-9.84132
▁定着	-9.84142
▁区別	-9.84166
▁略称	-9.84283
▁U	-9.84295
路	-9.84309
▁週	-9.84315
▁ジュニア	-9.84381
▁個	-9.84425
▁仙台	-9.84431
▁課題	-9.84431
▁工学	-9.84472
▁初め	-9.84531
▁白い	-9.84603
▁プロダクション	-9.84613
学	-9.8475
▁ジャケット	-9.84849
▁黒い	-9.85018
▁詩	-9.85129
▁著名	-9.85173
▁形状	-9.85341
▁プロデューサー	-9.85475
弧	-9.85552
▁沿い	-9.8574
護	-9.85745
▁乗車	-9.85779
▁上京	-9.85796
▁ガス	-9.85917
▁フランス語	-9.85942
▁凄く	-9.85964
▁愛知	-9.86072
▁育成	-9.86224
▁にあたる	-9.86276
▁移	-9.86331
▁熱帯	-9.86349
▁生涯	-9.8637
▁雄	-9.86374
▁地震	-9.8638
▁方言	-9.86387
▁旅	-9.86447
▁実は	-9.86515
▁困難	-9.86522
▁鑑賞	-9.86522
▁更新	-9.86522
▁意見	-9.86527
▁数字	-9.86579
▁行なわ	-9.86584
▁らしい	-9.86589
▁結ぶ	-9.86674
▁実行	-9.86709
ド	-9.8672
毛	-9.86768
▁暮らし	-9.86796
▁入力	-9.8685
▁妹	-9.86856
▁少女	-9.86889
▁前身	-9.86891
▁草	-9.86894
▁湾	-9.86901
▁配	-9.86909
▁を通して	-9.86928
▁検討	-9.86975
▁繰り返し	-9.86981
▁ユニット	-9.86993
▁いけ	-9.87049
▁統一	-9.87129
▁判断	-9.8728
▁回復	-9.87282
▁物質	-9.87309
▁金属	-9.87356
形	-9.87413
▁合併	-9.8743
▁翼	-9.87432
▁文献	-9.87432
▁任命	-9.87436
世	-9.87454
▁回戦	-9.87465
▁祖父	-9.8751
▁軌道	-9.87584
校	-9.87597
▁波	-9.87604
▁文書	-9.87643
▁スイス	-9.87645
▁中部	-9.87647
▁スタイル	-9.87654
▁もっと	-9.87664
▁片	-9.87692
▁起源	-9.87738
▁後述	-9.87767
▁シカゴ	-9.87798
▁緑色	-9.87897
▁胸	-9.87916
▁明	-9.88047
▁心理	-9.88209
▁周波数	-9.88258
▁括	-9.88276
調	-9.88293
▁門	-9.88358
▁同名	-9.88365
▁イン	-9.88377
▁農	-9.88392
▁始まり	-9.88464
▁歌詞	-9.88507
▁族	-9.88545
▁やる	-9.88643
▁サ	-9.88651
化	-9.88795
▁つい	-9.88807
▁貴族	-9.88813
▁W	-9.88883
▁課程	-9.88968
▁聞い	-9.8897
▁話し	-9.89023
▁コンピュータ	-9.89078
▁書き	-9.89078
▁業界	-9.89139
▁難しい	-9.89203
▁沿岸	-9.8928
▁次元	-9.8933
▁ミュージック	-9.89375
▁楽器	-9.89396
▁改造	-9.89592
▁電車	-9.89608
▁後期	-9.89657
▁教え	-9.89709
▁機構	-9.89744
▁授業	-9.89746
▁晩年	-9.8975
▁コンサート	-9.89865
▁若干	-9.89899
▁集合	-9.89909
▁翌日	-9.89946
▁テニス	-9.90033
▁左右	-9.90058
▁オフ	-9.90102
▁記者	-9.90112
▁条約	-9.90216
▁坂	-9.90259
▁順位	-9.90259
▁司令	-9.90367
▁改革	-9.90368
▁期待	-9.90371
から	-9.90398
戸	-9.90402
▁つつ	-9.90515
▁姉妹	-9.90539
▁ゴール	-9.90594
利	-9.90678
▁学び	-9.90706
▁東西	-9.90716
▁だから	-9.90768
▁認定	-9.90839
▁工	-9.9084
▁解	-9.90871
▁商	-9.90873
▁信号	-9.90883
橋	-9.9096
▁規則	-9.90972
ク	-9.91149
▁改善	-9.91158
▁行為	-9.9118
▁斑	-9.9119
▁まもなく	-9.91213
省	-9.91286
▁同盟	-9.91315
量	-9.91317
▁命名	-9.9132
▁残り	-9.914
▁デジタル	-9.91411
め	-9.9144
▁枝	-9.91464
▁コード	-9.91525
▁維持	-9.91631
▁集落	-9.91634
端	-9.91634
▁マーク	-9.91675
▁市街地	-9.91706
▁依存	-9.9179
▁休止	-9.9179
▁境界	-9.91954
▁歴代	-9.91957
▁熊本	-9.91961
▁しよ	-9.91964
▁甲	-9.92036
▁指摘	-9.92108
▁録音	-9.9211
▁既に	-9.92117
▁振	-9.92146
▁打	-9.92294
▁君	-9.92326
▁興味	-9.92344
▁脚	-9.92387
▁見える	-9.92391
▁眼	-9.92411
▁森林	-9.9243
▁文庫	-9.92433
▁解決	-9.92441
▁桜	-9.92466
▁モスクワ	-9.92526
▁食品	-9.92603
▁現れる	-9.92653
▁変	-9.92685
▁程	-9.92686
▁もしくは	-9.92688
▁短	-9.92783
▁わけ	-9.92903
▁育	-9.92935
▁関	-9.93041
▁要求	-9.93071
▁目指し	-9.93136
興	-9.93161
▁付い	-9.93189
▁普及	-9.93232
▁医師	-9.93233
▁消費	-9.93233
▁小学	-9.93277
▁ずっと	-9.93315
▁すなわち	-9.9333
▁暗	-9.93357
▁札幌	-9.93393
▁論文	-9.93425
▁京	-9.93515
▁交	-9.93525
▁売	-9.93685
▁閉鎖	-9.93717
▁課	-9.93762
▁見せ	-9.93798
▁シティ	-9.93824
達	-9.93911
▁西側	-9.93917
▁臨	-9.93918
▁毎日	-9.93933
▁日間	-9.93971
▁起き	-9.93979
▁貿易	-9.94042
条	-9.94066
▁鹿児島	-9.94104
▁S	-9.9411
▁傘下	-9.94207
▁組み合わせ	-9.94264
▁詳しく	-9.94266
▁加	-9.94326
▁救	-9.94362
▁ボール	-9.94439
元	-9.9445
▁単純	-9.94533
▁そ	-9.94629
▁貨物	-9.94665
▁戻る	-9.94666
▁表面	-9.94672
いる	-9.94715
▁本塁打	-9.94759
▁意識	-9.94808
▁たくさん	-9.94815
▁人生	-9.94823
▁準備	-9.94863
▁終わる	-9.9489
▁山口	-9.9493
▁造	-9.94955
▁樹	-9.95045
▁事例	-9.95047
▁症	-9.95074
▁助	-9.95099
▁ください	-9.95131
家	-9.95161
▁描く	-9.95173
▁書籍	-9.95194
▁拡張	-9.95353
▁当然	-9.95357
▁火	-9.95424
▁理解	-9.95518
▁向上	-9.95531
▁脳	-9.95604
石	-9.95738
▁アマチュア	-9.95971
▁証明	-9.96015
▁機器	-9.96061
素	-9.96076
▁ていう	-9.96085
▁砂	-9.9609
▁アル	-9.96093
▁退任	-9.96183
▁付属	-9.96184
▁生じる	-9.96292
▁オールスター	-9.96357
▁責任	-9.96372
▁ケース	-9.96474
発	-9.96494
▁駅前	-9.96518
▁大使	-9.9652
▁教員	-9.96536
する	-9.96547
▁扱い	-9.96729
▁共に	-9.96747
▁網	-9.96779
▁深い	-9.968
宮	-9.96815
▁延長	-9.96854
▁主催	-9.96859
兵	-9.96896
▁同士	-9.96896
率	-9.97091
▁同期	-9.97095
▁弁	-9.97163
▁守備	-9.97186
▁移民	-9.97194
▁審査	-9.97351
層	-9.9736
▁端	-9.97418
▁顧問	-9.97519
▁平和	-9.97532
食	-9.97612
▁どういう	-9.97654
▁症状	-9.97691
なる	-9.97715
▁耳	-9.97728
▁”	-9.97734
▁建	-9.97761
▁剤	-9.97841
▁免許	-9.97857
▁アニメーション	-9.98012
▁逮捕	-9.98026
▁勉強	-9.98026
▁敗	-9.98047
▁当主	-9.98068
速	-9.98113
▁計	-9.98193
▁料金	-9.982
▁最多	-9.98203
▁出産	-9.98223
▁文化財	-9.98259
側	-9.98362
▁修理	-9.98369
▁外交	-9.98375
▁東側	-9.98404
▁極めて	-9.98451
▁幅	-9.98467
▁視聴	-9.98534
▁打撃	-9.98538
▁ホール	-9.98551
▁母音	-9.98629
▁墓	-9.98719
▁中止	-9.98721
▁友達	-9.98723
▁身長	-9.98728
油	-9.98792
▁収め	-9.98815
▁クラシック	-9.98828
▁敗退	-9.98877
点	-9.98917
▁新人	-9.98949
▁変え	-9.99007
▁あげ	-9.99008
▁ネットワーク	-9.99057
平	-9.99084
▁郷	-9.99093
▁体制	-9.99111
表	-9.99253
▁青年	-9.99314
▁仕え	-9.99345
津	-9.99358
▁一定	-9.99377
▁取引	-9.9939
▁否定	-9.99391
▁遠	-9.99538
▁神経	-9.99562
▁類似	-9.99737
▁勢力	-9.99745
▁体験	-9.99761
▁昆虫	-9.99906
▁該当	-9.99906
▁金融	-9.99907
▁対策	-9.99909
▁指名	-9.99912
主	-9.99979
▁美	-10.0005
▁複雑	-10.0008
▁画面	-10.0011
因	-10.0021
▁手がけ	-10.0025
▁保険	-10.0025
▁仲間	-10.0027
▁終え	-10.0037
▁元々	-10.0043
▁価格	-10.0043
▁段	-10.005
幅	-10.0054
▁起こる	-10.0058
▁呉	-10.0065
▁出す	-10.007
▁コメント	-10.007
▁フィリピン	-10.0072
▁向かう	-10.0072
▁評	-10.0073
色	-10.0078
▁遺跡	-10.0078
▁用途	-10.0078
▁カバー	-10.0086
▁異なり	-10.0087
▁撤退	-10.0095
▁ニュー	-10.0097
▁取り上げ	-10.0098
▁代わり	-10.0102
▁現れ	-10.0106
陸	-10.0107
▁居住	-10.0112
B	-10.0124
▁派遣	-10.013
▁北側	-10.0135
▁変わる	-10.0138
▁立場	-10.0149
▁ロー	-10.0157
▁ものの	-10.0158
▁覆	-10.0158
▁をもって	-10.0158
▁アクション	-10.0162
▁ブランド	-10.0162
▁面積	-10.0167
▁方程式	-10.0171
▁V	-10.0182
▁測定	-10.0182
▁上映	-10.0185
▁性能	-10.0188
▁答え	-10.0195
▁負傷	-10.02
▁亜	-10.02
▁組合	-10.0205
身	-10.0208
▁構	-10.0213
▁純	-10.0217
▁憲法	-10.0218
▁介	-10.0218
児	-10.0239
▁ところが	-10.026
▁スケート	-10.0264
▁備え	-10.0269
▁毎	-10.0269
▁授与	-10.0271
▁上昇	-10.0271
▁就職	-10.0271
▁画家	-10.0272
▁放	-10.0285
▁宣言	-10.0288
▁病気	-10.029
▁効	-10.0291
▁南側	-10.0292
▁数々	-10.0309
▁肉	-10.0325
▁戻り	-10.0333
▁要	-10.0333
▁庁	-10.0336
▁プロデュース	-10.0338
▁供給	-10.0342
▁要因	-10.0342
▁空軍	-10.0346
▁持た	-10.0346
▁司	-10.0349
西	-10.035
連	-10.0359
▁ソフトウェア	-10.0359
易	-10.0375
▁固定	-10.0378
▁属	-10.0386
▁雪	-10.0386
▁訪れ	-10.0389
▁停車	-10.0395
▁著書	-10.0396
▁教室	-10.0398
▁墓地	-10.0399
▁ルート	-10.0399
▁切	-10.0411
▁統計	-10.0414
▁引き継	-10.042
▁そのもの	-10.0422
▁国会	-10.0426
▁パーソナリティ	-10.0427
▁スコットランド	-10.0429
▁ガン	-10.0431
▁服	-10.0467
▁任期	-10.047
岡	-10.0472
▁今度	-10.0482
▁診断	-10.0486
▁故障	-10.0487
▁養子	-10.0489
▁郵	-10.0491
▁回数	-10.0494
▁杯	-10.0497
▁兵庫	-10.0504
▁もつ	-10.0509
▁雨	-10.0515
▁サポート	-10.0522
▁職員	-10.053
▁カ	-10.0532
▁龍	-10.0535
▁陣	-10.0538
▁動画	-10.0544
▁全域	-10.0546
▁広い	-10.0552
▁回転	-10.0562
▁スクール	-10.0569
▁エピソード	-10.0572
▁危険	-10.0577
▁アン	-10.0577
▁ふ	-10.0578
分	-10.0587
▁前年	-10.0589
金	-10.06
▁必ず	-10.0614
▁好	-10.0614
▁取る	-10.0615
着	-10.0618
▁便	-10.0626
▁携帯	-10.0632
▁政権	-10.0633
▁広が	-10.0633
▁半分	-10.0633
▁岡山	-10.0634
▁福島	-10.0636
▁ボクシング	-10.0641
▁ブロック	-10.0642
頼	-10.0643
▁建造	-10.0651
▁カー	-10.0652
▁キャスト	-10.066
▁知事	-10.0663
▁一家	-10.0664
馬	-10.0668
▁接する	-10.0677
▁サン	-10.0682
▁ベトナム	-10.0682
▁信仰	-10.0687
▁ちゃん	-10.0698
け	-10.0709
▁ジャズ	-10.0712
▁創立	-10.0725
▁移行	-10.0726
▁リンク	-10.0732
▁ライト	-10.0737
▁王者	-10.074
▁皇帝	-10.0741
▁優れ	-10.0742
▁長官	-10.0749
▁諸島	-10.0759
▁TV	-10.0768
▁単行本	-10.0769
▁当たる	-10.0773
▁命令	-10.078
▁手段	-10.0781
▁司会	-10.0781
▁道具	-10.0782
▁中退	-10.0783
▁吉	-10.0786
▁細	-10.0787
▁倍	-10.0787
▁基づく	-10.0789
▁対立	-10.0801
定	-10.0802
▁渡り	-10.0808
▁サイズ	-10.0816
▁K	-10.0822
▁小学生	-10.0826
▁占める	-10.0829
▁水泳	-10.0855
▁様子	-10.0857
級	-10.0862
▁テキサス	-10.0865
▁ポルトガル	-10.0867
▁基づ	-10.0868
▁併設	-10.0874
▁問	-10.0883
▁塔	-10.0887
▁崩壊	-10.0893
▁交渉	-10.0893
▁埋葬	-10.0893
▁鎌倉	-10.0893
▁リング	-10.0893
▁球	-10.0895
▁兼	-10.0895
す	-10.0896
▁ギリシャ	-10.0906
▁もん	-10.0909
▁爆発	-10.0912
▁仏教	-10.0913
▁見え	-10.0913
権	-10.0921
▁イスラエル	-10.0924
▁セ	-10.0928
▁思想	-10.093
▁集中	-10.0935
屋	-10.0935
▁上げ	-10.0941
▁上位	-10.0946
▁通算	-10.095
▁ゅ	-10.0957
▁広がる	-10.0962
▁消滅	-10.0969
▁推進	-10.0969
▁古典	-10.0969
▁絵画	-10.097
▁酸	-10.097
▁永	-10.0971
▁職業	-10.0971
▁使い	-10.0973
▁無人	-10.098
▁起こし	-10.099
▁裁判	-10.0992
▁特性	-10.0994
▁可	-10.1001
▁よい	-10.1005
▁評論	-10.1007
▁動作	-10.1008
▁材料	-10.1013
▁鳥	-10.1018
▁判決	-10.1026
▁東海	-10.1026
▁改良	-10.1026
電力	-10.103
▁密	-10.104
▁書く	-10.1041
▁国籍	-10.1048
▁決まっ	-10.1052
▁体育	-10.1063
▁岐阜	-10.1064
▁奈良	-10.1064
▁行い	-10.1066
▁種目	-10.107
議会	-10.1074
▁エジプト	-10.1074
▁大分	-10.1079
▁キャンプ	-10.1096
▁チャンピオン	-10.1097
▁FA	-10.11
▁伝説	-10.1103
▁分離	-10.1103
光	-10.1108
▁小さく	-10.1109
▁航空機	-10.111
▁正確	-10.1125
▁徐々に	-10.1128
▁素	-10.1129
▁ソング	-10.113
▁辺	-10.1136
▁ショー	-10.114
▁それでも	-10.1143
▁区画	-10.1145
▁質	-10.1146
▁美術館	-10.1148
▁竹	-10.1155
▁陸	-10.1162
▁パ	-10.1176
▁乾燥	-10.118
▁悪い	-10.1181
▁銃	-10.1183
▁乗	-10.1183
▁行なう	-10.1186
▁はっきり	-10.1199
▁防	-10.1217
▁果実	-10.1219
▁商店	-10.122
▁家臣	-10.1223
鉄	-10.1225
▁白色	-10.1227
▁ち	-10.1227
▁ちなみに	-10.1231
▁フィンランド	-10.1233
シア	-10.1234
▁燃料	-10.1239
▁ゼロ	-10.1245
▁ウィーン	-10.1249
▁アクセント	-10.1253
▁試み	-10.1253
▁師事	-10.126
▁銀	-10.1263
▁過	-10.1266
▁退社	-10.1279
▁生き	-10.128
▁凄い	-10.1282
▁既	-10.1284
▁ユース	-10.1285
▁退	-10.1288
結	-10.1289
▁やり	-10.1291
▁つく	-10.1297
▁確定	-10.1298
▁創業	-10.1298
れる	-10.1308
▁歩	-10.1312
教	-10.1317
▁ほ	-10.1317
▁世代	-10.1318
▁実家	-10.1322
▁なかなか	-10.1327
▁エンディング	-10.1331
▁わ	-10.1342
頂	-10.1347
▁奥	-10.1347
▁単に	-10.137
▁歯	-10.1377
▁出走	-10.1379
▁英国	-10.1382
▁格	-10.1384
▁キリスト	-10.1386
▁モチーフ	-10.1386
▁刺激	-10.1396
▁少数	-10.1398
▁カメラ	-10.14
▁猫	-10.14
▁ビジネス	-10.1406
▁メス	-10.141
▁占領	-10.1416
▁容易	-10.1417
▁極	-10.1422
▁一致	-10.1426
▁毒	-10.1426
▁申し	-10.143
.	-10.1437
▁未来	-10.1439
▁増	-10.144
▁判定	-10.1456
門	-10.1459
▁ロ	-10.1462
▁飾	-10.1465
▁地形	-10.1466
ね	-10.148
▁パン	-10.1482
▁過ごす	-10.1487
▁民主党	-10.1495
▁輸出	-10.1496
▁珍しい	-10.1502
▁早く	-10.151
▁記号	-10.1517
▁グランプリ	-10.1528
▁タイム	-10.1535
▁チャンネル	-10.1535
▁文章	-10.1537
▁秋田	-10.1548
▁呼称	-10.1557
▁変数	-10.1559
▁上海	-10.1561
▁これから	-10.1562
和	-10.1578
▁バレエ	-10.1583
▁一切	-10.1588
党	-10.1595
▁兼任	-10.1597
▁音響	-10.1598
▁縦	-10.1604
▁しばらく	-10.1607
筆	-10.1608
▁登山	-10.1618
▁治	-10.1621
▁捕	-10.1622
▁目指す	-10.1624
▁恒	-10.1624
▁ロボット	-10.1627
▁簡	-10.1629
▁来る	-10.1631
▁赤い	-10.1634
▁受験	-10.1638
▁抽出	-10.1638
▁選抜	-10.1638
▁参議	-10.1638
▁東映	-10.1639
▁バー	-10.1639
▁平成	-10.1641
▁ゆ	-10.1641
▁仮	-10.1642
▁谷	-10.1644
▁ご	-10.1645
殻	-10.165
“	-10.165
▁子孫	-10.1659
害	-10.166
▁ばかり	-10.1667
▁P	-10.1669
▁額	-10.1669
▁募集	-10.1678
▁空気	-10.168
▁温度	-10.1681
▁言える	-10.1694
▁規制	-10.1699
▁受け入れ	-10.1704
▁伊	-10.1708
▁ドラフト	-10.1709
▁観察	-10.172
▁流通	-10.172
▁紀元前	-10.1726
▁出来事	-10.1726
▁作者	-10.1732
▁シンガポール	-10.1733
▁ニュージーランド	-10.1736
▁フル	-10.1736
▁活	-10.174
▁特記	-10.1741
▁精度	-10.1742
▁長期	-10.175
▁負け	-10.1759
▁支	-10.1762
▁伴う	-10.1763
▁四国	-10.1763
▁ハワイ	-10.1767
城	-10.1768
▁条	-10.1772
▁掛け	-10.1773
▁首	-10.1774
▁惑星	-10.1778
▁奇	-10.1779
▁明確	-10.1781
▁行列	-10.1781
▁広場	-10.1784
▁一応	-10.1785
▁除く	-10.1788
督	-10.1789
▁ちょうど	-10.1791
▁走る	-10.1791
種	-10.1792
▁満	-10.1794
▁秒	-10.1794
▁解釈	-10.1802
▁進化	-10.1805
▁現場	-10.1805
▁先行	-10.1807
▁知っ	-10.181
▁主体	-10.1813
▁落ち	-10.1825
▁分から	-10.1826
▁解体	-10.1827
例	-10.1829
▁厳	-10.1836
▁死ん	-10.184
▁もっ	-10.1843
▁様	-10.1849
局	-10.1853
密	-10.1863
▁犯罪	-10.1864
▁生じ	-10.1865
▁之	-10.1877
▁レコーディング	-10.1879
▁読書	-10.1885
▁グラフ	-10.1892
▁グリーン	-10.1894
論	-10.1918
義	-10.1919
▁大量	-10.1919
▁潜水	-10.1927
まっ	-10.1943
▁オス	-10.1955
▁同時	-10.1962
▁ミュージシャン	-10.1963
▁記憶	-10.1969
▁統治	-10.1969
▁加工	-10.1969
▁灰色	-10.1969
▁クリア	-10.1976
ラ	-10.198
▁場面	-10.1983
▁葬	-10.1988
▁こんな	-10.1997
▁池	-10.2008
▁校舎	-10.2011
▁応用	-10.2011
▁ベクトル	-10.2011
▁関心	-10.2011
ツ	-10.2012
▁徳島	-10.2013
▁住む	-10.202
▁編	-10.203
▁ぬ	-10.2031
波	-10.2031
▁一種	-10.2031
▁固有	-10.2032
▁mm	-10.2032
▁貴	-10.2033
▁中間	-10.2036
空	-10.2037
▁一族	-10.2038
▁ジョージ	-10.2041
葉	-10.2047
▁季節	-10.2053
▁発足	-10.2054
▁公表	-10.2056
▁最優秀	-10.2059
縮	-10.2073
▁調整	-10.2074
▁ノ	-10.2075
目	-10.2078
▁キャンパス	-10.2086
▁ハンガリー	-10.2086
▁菌	-10.2091
▁友	-10.2093
▁つける	-10.2095
▁人工	-10.2104
▁リー	-10.2107
▁投資	-10.2117
▁題材	-10.2117
▁抗	-10.2122
務	-10.2126
▁席	-10.2135
▁価値	-10.2138
▁司法	-10.2139
▁軽	-10.214
▁発着	-10.214
▁様式	-10.214
▁結合	-10.214
▁短く	-10.2143
なく	-10.2143
▁廃	-10.2146
▁専念	-10.216
▁対抗	-10.216
▁標高	-10.216
▁属性	-10.2162
▁過ぎ	-10.217
ウェー	-10.2171
料	-10.2172
▁博	-10.2173
▁スペース	-10.2176
▁経緯	-10.2182
▁レッド	-10.219
望	-10.2194
▁とこ	-10.2196
▁演じ	-10.2196
貫	-10.2202
▁イ	-10.2202
▁旗	-10.2207
▁幼稚園	-10.2209
角	-10.2209
▁サイド	-10.2211
▁保	-10.2214
シー	-10.2215
▁パイロット	-10.2215
▁早	-10.2218
▁費	-10.2226
▁地位	-10.2234
▁なぜ	-10.2241
▁負	-10.2244
▁発言	-10.2246
▁ワン	-10.2256
▁話す	-10.2257
▁参考	-10.2267
▁行事	-10.2269
▁おも	-10.227
▁うまく	-10.2274
▁像	-10.2275
▁立て	-10.2276
▁デンマーク	-10.228
▁再建	-10.229
▁敷地	-10.229
▁色彩	-10.229
っとも	-10.2291
▁権利	-10.2291
▁名詞	-10.2292
▁アクセス	-10.2301
▁フジテレビ	-10.2301
▁資金	-10.2311
▁患者	-10.2312
▁高校生	-10.2312
▁ごく	-10.2315
コン	-10.2321
▁弟子	-10.2329
▁低下	-10.2336
卵	-10.234
▁沿	-10.2345
▁巨大	-10.2355
▁変動	-10.2355
▁同一	-10.2374
▁画像	-10.2377
▁求める	-10.2377
▁前半	-10.2379
▁食用	-10.238
▁料	-10.2385
▁成分	-10.2389
▁外部	-10.2392
▁山地	-10.2399
▁件	-10.2401
▁パソコン	-10.2408
▁タクシー	-10.2408
▁学位	-10.2409
▁追	-10.2413
▁ワールドカップ	-10.2414
▁出力	-10.2416
▁分かれる	-10.2421
▁張	-10.2429
▁手掛け	-10.2443
▁衛星	-10.2443
▁仏	-10.2447
▁幅広い	-10.2449
▁レーベル	-10.2452
ビエ	-10.2463
▁勿論	-10.2464
▁働き	-10.2465
▁トレーニング	-10.2465
▁称号	-10.2465
▁対話	-10.2465
▁悪化	-10.2466
▁末期	-10.2467
▁披露	-10.2467
▁く	-10.2469
▁侍	-10.2481
▁任意	-10.2487
▁直前	-10.249
▁中学生	-10.2497
▁魔法	-10.2509
▁墓所	-10.251
▁即	-10.2516
▁ワイン	-10.252
▁医	-10.2525
▁コロンビア	-10.2531
▁修正	-10.2531
▁諸国	-10.2536
▁ネタ	-10.2537
▁ベルギー	-10.2541
ナ	-10.2541
▁ウクライナ	-10.2543
▁良	-10.2547
▁怪我	-10.2553
品	-10.2558
▁ミュージカル	-10.2567
▁側面	-10.2569
▁絶対	-10.2575
▁漁業	-10.2576
マン	-10.2577
成	-10.2579
▁李	-10.2585
▁艇	-10.259
▁批評	-10.2598
▁尽力	-10.2598
▁編入	-10.2598
▁人数	-10.2599
▁前述	-10.2599
▁三男	-10.26
▁入手	-10.2601
▁テキスト	-10.2602
▁地下鉄	-10.2605
▁次第に	-10.2611
▁プラス	-10.2612
官	-10.2616
▁爵位	-10.262
▁戦略	-10.2622
▁オペラ	-10.2626
▁トーク	-10.2626
▁しまい	-10.2629
▁トンネル	-10.263
▁劉	-10.263
▁地中	-10.2638
▁学長	-10.2642
▁自殺	-10.2644
▁数値	-10.2647
▁法学部	-10.2653
▁アルゼンチン	-10.2657
▁展	-10.2657
▁ジャパン	-10.2663
▁飼育	-10.2665
▁遺産	-10.2666
▁車体	-10.2675
▁双方	-10.2677
▁収集	-10.2688
▁田中	-10.2692
紋	-10.2693
▁人員	-10.2701
▁郊外	-10.271
▁演技	-10.271
▁執行	-10.2711
容	-10.2711
▁原子	-10.2713
▁輪	-10.2714
▁主題	-10.2714
▁通行	-10.2715
▁TBS	-10.2717
辺	-10.2717
▁激しい	-10.2718
▁いえる	-10.2728
▁降	-10.2729
▁輸入	-10.2733
▁適応	-10.2733
▁許	-10.2734
▁接し	-10.2746
▁微	-10.275
▁ドル	-10.2759
▁児	-10.277
役所	-10.2775
火	-10.2775
▁滞在	-10.2779
▁ルー	-10.278
▁釣り	-10.2784
皮	-10.2785
▁周り	-10.2787
▁ボーカル	-10.2792
▁呼	-10.2794
▁祖	-10.2799
▁落語	-10.2802
▁満たす	-10.2808
▁姫	-10.282
花	-10.2821
▁至っ	-10.2825
曲	-10.2826
▁令	-10.2828
雄	-10.2831
▁E	-10.2845
▁合唱	-10.2847
▁材	-10.2847
▁省略	-10.2847
▁被験者	-10.2853
▁麻	-10.2855
▁レストラン	-10.2862
▁周年	-10.2862
▁分子	-10.2868
▁処分	-10.2871
▁ソウル	-10.2877
▁トーナメント	-10.2884
▁功績	-10.2893
▁疾患	-10.2893
▁降格	-10.2894
▁筋	-10.2896
産	-10.2904
▁フィールド	-10.2906
▁分解	-10.2917
稿	-10.2919
▁学院	-10.2922
▁冷	-10.2934
▁窓	-10.2934
▁十分	-10.2941
▁山形	-10.2946
▁意	-10.2947
▁堂	-10.2948
▁不足	-10.2951
▁提示	-10.2963
▁完了	-10.2963
▁許可	-10.2963
▁地理	-10.2973
▁イオン	-10.2976
▁雲	-10.2988
▁子会社	-10.2994
▁サンフランシスコ	-10.3002
▁境	-10.3003
▁育て	-10.3009
▁特典	-10.301
▁あたし	-10.3019
▁移る	-10.3021
▁チェ	-10.3027
▁手がける	-10.3028
▁承認	-10.3033
酸化	-10.3037
▁濃	-10.304
▁交代	-10.304
▁しれ	-10.3042
▁局長	-10.3042
▁号線	-10.3044
▁モンスター	-10.3045
▁勲章	-10.3056
▁主将	-10.3058
▁兵器	-10.3066
▁ボタン	-10.3066
▁中華人民共和国	-10.3071
▁環	-10.3076
▁帰還	-10.308
▁現実	-10.3081
▁関わ	-10.3093
▁上部	-10.3093
▁見つか	-10.3095
▁kg	-10.3103
▁活用	-10.3104
▁街道	-10.3107
▁相撲	-10.3109
▁施	-10.3125
▁隆	-10.3129
な	-10.3131
▁案内	-10.3131
▁貫	-10.3136
▁主力	-10.3136
▁諡	-10.3138
越	-10.3138
▁分かる	-10.314
▁ナレーション	-10.3141
製	-10.315
▁解雇	-10.315
▁構築	-10.315
▁希望	-10.315
▁線路	-10.3154
▁ブラック	-10.316
久	-10.3163
▁通る	-10.3164
▁かつ	-10.3166
▁兼ね	-10.3176
▁かかる	-10.3184
▁無線	-10.3185
▁人達	-10.3186
▁つ	-10.3187
裁	-10.3202
▁寺院	-10.3203
▁ボストン	-10.3208
▁オープニング	-10.3212
▁方針	-10.3222
▁抵抗	-10.3223
▁コンビ	-10.3231
▁海上	-10.3231
▁トル	-10.3244
▁待合	-10.3245
売	-10.3247
▁食事	-10.3248
▁頼	-10.3251
▁甲子園	-10.3251
▁優秀	-10.3253
▁シナリオ	-10.3255
▁キー	-10.3258
▁駒	-10.3259
有	-10.3259
▁断	-10.3261
▁経由	-10.3269
▁屋根	-10.327
▁触	-10.3271
▁考え方	-10.3272
▁迎える	-10.3272
客	-10.3273
▁文学部	-10.3276
▁いつも	-10.328
▁マレー	-10.3284
▁オーバー	-10.3293
▁危機	-10.3293
▁辞任	-10.3293
▁予約	-10.3294
▁ボス	-10.3304
勢	-10.3312
共産党	-10.3317
▁独特	-10.3317
▁体系	-10.3326
新	-10.3331
▁公立	-10.3337
▁勤め	-10.3337
▁占め	-10.3337
▁印象	-10.334
▁旅客	-10.3341
▁解放	-10.3342
▁聖書	-10.3343
▁従軍	-10.3348
▁紀	-10.335
▁キャプテン	-10.3354
俗	-10.3361
▁古墳	-10.3366
▁生命	-10.3367
▁SF	-10.3368
▁パワー	-10.3374
▁再生	-10.3374
▁としまして	-10.3381
▁コミュニケーション	-10.3388
▁イラン	-10.3392
▁秀	-10.3397
▁案	-10.3397
河	-10.3404
▁受章	-10.3414
▁概要	-10.3414
▁天然	-10.3414
▁鈴木	-10.3414
▁コン	-10.3422
▁オフィス	-10.3424
▁ブルー	-10.3426
▁地点	-10.3428
変わら	-10.3428
▁別に	-10.3438
▁音源	-10.344
▁訪れる	-10.3453
▁会話	-10.346
▁走行	-10.3465
▁富山	-10.3465
費	-10.3466
▁期限	-10.3468
▁働く	-10.347
▁タウン	-10.3473
▁民主	-10.3483
▁プロモーション	-10.3486
▁密度	-10.3489
語	-10.3499
▁陽	-10.3503
▁メール	-10.3507
▁訪問	-10.3512
▁改正	-10.3513
▁例外	-10.3524
▁露	-10.3525
切	-10.3529
▁飛	-10.353
▁離脱	-10.3536
▁気象	-10.3537
▁財政	-10.3537
▁助教授	-10.3543
▁不定期	-10.3543
▁射	-10.3544
▁半島	-10.3546
ビ	-10.3549
▁およそ	-10.3565
▁気持ち	-10.3567
▁コミュニティ	-10.3572
▁仁	-10.3575
▁柱	-10.3578
▁従って	-10.358
▁本線	-10.3582
▁資源	-10.3586
▁投稿	-10.3586
▁機種	-10.3591
▁あなた	-10.3592
▁コミック	-10.3594
▁種子	-10.3601
▁少	-10.3603
▁毎週	-10.361
南	-10.3612
▁制定	-10.3613
▁自治	-10.3617
▁軍人	-10.3623
▁包	-10.3624
▁担	-10.3633
▁興行	-10.3636
▁なん	-10.364
▁縄	-10.3642
▁新宿	-10.3647
機	-10.3656
▁質問	-10.366
▁事情	-10.3661
▁正解	-10.3661
▁くらい	-10.3667
▁スカウト	-10.3678
▁コ	-10.3682
▁考慮	-10.3685
▁複合	-10.3686
▁手紙	-10.3686
▁毎回	-10.3687
▁川崎	-10.3692
▁オレンジ	-10.3695
▁汚	-10.3698
▁遠征	-10.371
▁刺史	-10.371
▁伴	-10.3713
▁風景	-10.3713
▁飛行機	-10.3717
▁関わる	-10.3721
▁看	-10.3722
▁インドネシア	-10.3724
▁移り	-10.3727
もなく	-10.3735
▁アルゴリズム	-10.3737
▁神話	-10.3737
▁上下	-10.374
▁ハーフ	-10.3741
▁小規模	-10.3742
▁分か	-10.3744
▁フレーム	-10.3756
▁IC	-10.3759
▁象徴	-10.376
▁傍ら	-10.3761
▁殺	-10.3762
根	-10.3762
▁富	-10.3763
▁続き	-10.3766
▁謎	-10.3773
台	-10.3773
江	-10.3784
▁予測	-10.3785
▁連覇	-10.3785
▁子ども	-10.3792
▁不可能	-10.3793
▁命	-10.3796
▁肺	-10.38
▁ハー	-10.3801
▁ミッション	-10.3803
▁乗っ	-10.3806
▁人類	-10.3809
▁穴	-10.3811
▁連れ	-10.3811
▁けれど	-10.3812
▁改名	-10.3814
▁紫	-10.3815
▁容	-10.3819
▁堀	-10.3826
▁太郎	-10.3827
▁リーダー	-10.3829
▁くれる	-10.3835
▁豊富	-10.3836
▁改称	-10.3836
▁保有	-10.3836
▁気温	-10.3837
決勝	-10.3837
▁無く	-10.3837
▁キャラ	-10.3845
▁ブレーキ	-10.3846
▁大正	-10.3848
▁築	-10.3848
帯	-10.3854
▁ウイルス	-10.3854
▁要約	-10.3862
▁正室	-10.387
▁マリ	-10.3874
▁上がっ	-10.3874
▁油	-10.3879
好	-10.3886
▁但し	-10.3887
▁関与	-10.3887
▁頻度	-10.3887
▁幅広く	-10.3893
▁私立	-10.39
▁宿	-10.3909
▁仮説	-10.3913
▁重視	-10.3913
▁支部	-10.3916
▁ミス	-10.3919
▁遺伝子	-10.3919
▁フォード	-10.3926
ランド	-10.3941
▁外野	-10.3949
▁半年	-10.3952
▁本来	-10.3963
▁提携	-10.3963
▁エース	-10.397
▁リス	-10.397
▁因	-10.3973
▁スペシャル	-10.3976
▁エレベーター	-10.3978
▁宮崎	-10.399
▁跡地	-10.3994
▁学区	-10.3996
▁輝	-10.3998
▁インター	-10.3999
税	-10.4003
▁違	-10.4006
▁整理	-10.4015
▁平安	-10.4016
▁進み	-10.4019
▁歴	-10.4021
▁自衛隊	-10.4021
▁ノル	-10.4022
▁ミニ	-10.4027
チ	-10.4028
▁よって	-10.4035
▁仲	-10.4039
▁配属	-10.4041
▁みる	-10.4045
▁久	-10.4045
▁着用	-10.4045
朝鮮	-10.4047
▁食べ物	-10.4049
▁スポンサー	-10.4053
▁入れる	-10.4056
▁サブ	-10.4056
雪	-10.4065
▁列挙	-10.4067
▁ロード	-10.4069
▁矢	-10.4073
▁引き	-10.4086
▁伯	-10.409
▁高度	-10.409
▁諸説	-10.4093
▁芸人	-10.4094
▁最小	-10.4094
▁長女	-10.4094
▁論理	-10.4096
▁代理	-10.4096
▁レスリング	-10.4105
▁鼻	-10.4108
▁パーク	-10.4111
▁拒否	-10.4119
▁学術	-10.4124
沼	-10.4127
▁遅れ	-10.4129
▁オンライン	-10.4131
▁カット	-10.4134
▁プロセス	-10.4135
▁利	-10.4137
▁警備	-10.4145
▁収入	-10.4145
職	-10.4147
▁ウィリアム	-10.4158
▁推薦	-10.4171
▁湯	-10.4171
▁伊勢	-10.4171
▁景	-10.4172
実	-10.4178
▁別名	-10.4179
安	-10.4185
マ	-10.419
置	-10.4197
▁予想	-10.4197
▁保守	-10.4197
▁東宝	-10.4198
▁取材	-10.4198
▁並行	-10.4198
▁よる	-10.4199
▁捕手	-10.4199
▁美しい	-10.4206
▁松本	-10.4206
走	-10.4207
▁ギリシア	-10.4207
▁稀	-10.4211
▁印刷	-10.4223
▁脱退	-10.4223
▁改修	-10.4224
▁保持	-10.4224
▁夫婦	-10.4224
▁吉田	-10.4229
▁派生	-10.423
▁本拠地	-10.4231
▁蔵	-10.4244
▁示	-10.4248
▁続編	-10.425
▁割合	-10.4251
▁定理	-10.4251
▁贈	-10.4258
▁名義	-10.4259
▁キリスト教	-10.4263
▁採	-10.4272
▁検出	-10.4277
▁変形	-10.4277
▁合流	-10.4277
等	-10.4278
▁竜	-10.4279
▁散	-10.428
▁停留所	-10.4283
▁華	-10.4285
▁慶應義塾	-10.4286
▁就	-10.4287
▁ダブルス	-10.4287
▁日常	-10.4293
▁シングルス	-10.4294
▁金沢	-10.4308
▁出発	-10.4309
▁寒	-10.4311
塁	-10.4311
▁フロリダ	-10.4313
▁オーディション	-10.4318
▁インタビュー	-10.4319
カー	-10.4321
▁修了	-10.4329
▁青森	-10.433
▁入賞	-10.4331
▁業者	-10.4341
シ	-10.4342
寺	-10.4357
▁実装	-10.4358
▁殺人	-10.4359
▁ガラス	-10.4362
▁唐	-10.4372
▁皮	-10.4377
▁覚え	-10.4381
▁予備	-10.4382
▁典型	-10.4383
▁微分	-10.4384
▁海洋	-10.4384
陽	-10.4388
▁投げ	-10.4393
▁知	-10.4393
▁箱	-10.4409
▁語彙	-10.441
▁アップ	-10.4413
▁漢字	-10.4417
▁留ま	-10.4419
▁アート	-10.4423
▁立ち	-10.4423
岐	-10.4431
▁頻繁	-10.4436
▁操縦	-10.4437
▁刑事	-10.4437
▁火山	-10.4442
▁報	-10.4445
▁お金	-10.4446
▁排	-10.445
▁補	-10.4453
▁転身	-10.4464
▁義務	-10.4464
▁必ずしも	-10.4473
▁運	-10.4478
▁出生	-10.4479
▁休	-10.448
▁最古	-10.4491
▁皆さん	-10.4497
▁コート	-10.4498
電	-10.45
▁ホームページ	-10.4505
▁興	-10.4505
▁次いで	-10.4524
▁ランド	-10.4525
▁みな	-10.453
▁全身	-10.453
▁大賞	-10.4532
▁災害	-10.4545
▁発射	-10.4545
▁短編	-10.4546
▁栄	-10.455
▁ファイル	-10.4555
▁ジャンプ	-10.4555
▁部品	-10.4564
▁メダル	-10.4572
▁突然	-10.4572
▁武装	-10.4573
▁給	-10.4574
▁有料	-10.4574
▁ローカル	-10.4582
明	-10.459
▁囲	-10.4592
▁確保	-10.4599
▁除き	-10.4603
▁取り入れ	-10.4603
▁後継	-10.4603
▁分裂	-10.4605
▁業績	-10.4627
▁兵士	-10.4628
▁連勝	-10.4628
▁オー	-10.4629
▁携わ	-10.4631
▁不動産	-10.4636
▁超える	-10.4639
▁こそ	-10.4642
▁家系	-10.4646
▁落選	-10.4654
▁資本	-10.4656
席	-10.4658
ジア	-10.4661
▁ミュンヘン	-10.4666
配	-10.4668
温	-10.4674
▁杉	-10.4683
▁修道院	-10.4689
▁フィルム	-10.4692
▁メッセージ	-10.4694
▁当日	-10.4695
▁取	-10.4701
飾	-10.4705
別	-10.4707
▁委託	-10.4709
▁衝突	-10.4709
▁階段	-10.471
▁味	-10.4713
▁つなが	-10.4713
▁空手	-10.4714
▁厳しい	-10.4716
▁成人	-10.4718
▁牛	-10.4725
▁ス	-10.4731
▁吸収	-10.4737
▁編曲	-10.4738
異	-10.4738
▁上がる	-10.474
▁居	-10.4742
▁オーケストラ	-10.4751
▁調べ	-10.4754
西洋	-10.4756
▁石川	-10.4765
▁渡辺	-10.4766
▁福祉	-10.4767
接	-10.4768
▁ロケット	-10.4775
▁恋	-10.4777
▁東洋	-10.4784
▁底	-10.4785
▁依頼	-10.4793
▁反乱	-10.4793
▁経歴	-10.4793
▁支店	-10.4795
状	-10.4804
▁読み	-10.4804
楽	-10.4818
▁実績	-10.4821
▁殿堂	-10.4821
▁共演	-10.4821
▁時計	-10.4824
▁戦線	-10.483
▁衣	-10.4832
▁寛	-10.484
▁補助	-10.4849
▁軍隊	-10.4855
▁ジョージア	-10.4862
▁ホワイト	-10.4863
隣	-10.4868
減	-10.487
▁茨城	-10.4877
▁規格	-10.4877
▁敗北	-10.4877
▁下旬	-10.4878
▁横須賀	-10.4883
▁向	-10.4903
▁起	-10.4903
▁財団	-10.4905
▁施行	-10.4906
▁敗戦	-10.4907
▁マ	-10.4914
▁都道府県	-10.4915
▁消防	-10.4933
▁順序	-10.4934
▁合計	-10.4934
▁ポスト	-10.4941
▁マンション	-10.4946
▁パフォーマンス	-10.4948
▁鱗	-10.4949
▁キング	-10.4951
▁中村	-10.4956
小	-10.4959
▁発掘	-10.4962
▁確立	-10.4962
▁お笑い	-10.4968
▁夫人	-10.4969
▁ド	-10.4971
▁どんどん	-10.4971
折	-10.4973
▁勢	-10.4976
▁パラメーター	-10.4977
▁大人	-10.4978
▁並	-10.4983
▁四つ	-10.4984
▁午後	-10.499
▁地図	-10.4992
▁有機	-10.4993
ほど	-10.4995
▁水素	-10.4995
▁打者	-10.4998
▁あんまり	-10.5
▁ジャイアンツ	-10.5004
▁あらゆる	-10.5004
輪	-10.5005
▁康	-10.5006
▁奴隷	-10.5018
▁将棋	-10.5019
▁市町村	-10.5026
▁シドニー	-10.5028
▁中華民国	-10.5028
▁磁	-10.5032
▁渡る	-10.5034
▁栃	-10.5035
▁祭り	-10.5035
▁乱	-10.5041
▁音節	-10.5049
▁読	-10.505
▁主題歌	-10.5053
▁高橋	-10.5055
▁コスト	-10.5056
▁カレッジ	-10.5057
▁マス	-10.5062
▁ドライバー	-10.5067
▁概ね	-10.5076
▁紋章	-10.5076
▁共有	-10.5077
▁ミシ	-10.5079
▁なんて	-10.508
▁直線	-10.5086
▁炎	-10.5086
▁決める	-10.5099
▁パス	-10.5101
▁亡命	-10.5104
▁相続	-10.5105
▁経過	-10.5105
▁人民	-10.5105
▁放出	-10.5106
▁泉	-10.5109
▁事前	-10.5114
▁スピード	-10.5114
▁上陸	-10.5115
▁肝	-10.5127
▁よれ	-10.5131
▁忘れ	-10.5133
▁群馬	-10.5136
▁重ね	-10.5137
▁周期	-10.5137
▁玉	-10.5144
▁しかも	-10.5149
▁取り組	-10.5152
▁プール	-10.5161
▁収容	-10.5162
▁ブログ	-10.5168
▁無人島	-10.5171
▁霊	-10.5174
▁バリエーション	-10.5177
▁癌	-10.5177
▁深く	-10.5178
▁ルイ	-10.5182
▁認知	-10.5191
▁接触	-10.5191
▁混乱	-10.5191
▁放映	-10.5191
▁事態	-10.5192
▁座席	-10.5192
▁分岐	-10.5194
▁ハン	-10.5203
▁豊か	-10.5205
▁文法	-10.5205
▁床	-10.5211
▁修	-10.5211
▁裕	-10.5218
▁徒歩	-10.522
▁GP	-10.5224
▁コピー	-10.5226
▁通学	-10.5228
▁平野	-10.5231
▁茂	-10.5233
▁ヴァイオリン	-10.5234
▁巣	-10.5236
▁後ろ	-10.5238
▁スコア	-10.5246
▁研修	-10.5248
▁捜査	-10.5249
▁銀河	-10.525
▁加藤	-10.5251
▁高齢	-10.5251
▁多少	-10.5255
▁詳しい	-10.5255
▁立地	-10.526
▁ディレクター	-10.5265
▁大事	-10.5275
▁護衛	-10.5278
▁雑音	-10.5279
▁大将	-10.5282
▁スペクトル	-10.5282
▁役員	-10.5283
▁清水	-10.5283
▁校長	-10.5283
▁生放送	-10.5289
▁序	-10.5293
▁社員	-10.5295
▁三重	-10.53
盤	-10.53
▁投	-10.5302
▁侵攻	-10.5308
▁再現	-10.5309
▁経路	-10.5313
▁敬	-10.5318
像	-10.532
▁アナ	-10.5322
▁柳	-10.5333
▁住居	-10.5337
▁少将	-10.5337
▁解除	-10.5337
▁好む	-10.5338
▁戦前	-10.5338
▁守護	-10.5339
▁ハウス	-10.5344
▁宇	-10.5345
▁知る	-10.5347
▁つき	-10.535
▁リニューアル	-10.5351
▁たび	-10.5353
▁術	-10.5359
▁熊	-10.5361
▁越	-10.5363
▁田	-10.5363
▁助手	-10.5369
▁ちゃっ	-10.5369
欧	-10.5376
▁東南アジア	-10.5379
▁再度	-10.538
▁複	-10.5382
▁昌	-10.5383
▁伸び	-10.539
▁おき	-10.5396
▁野菜	-10.5396
▁秘密	-10.5396
▁渋谷	-10.5396
▁庭園	-10.5396
▁ついに	-10.5399
▁満州	-10.5399
▁判	-10.5411
▁蒸	-10.5414
▁妊娠	-10.5426
▁疑問	-10.5426
▁阪神	-10.5426
▁復興	-10.5426
▁深夜	-10.5426
▁台風	-10.5427
▁伊藤	-10.5427
▁ピッチ	-10.5437
▁コンテスト	-10.5438
▁携わる	-10.5439
▁モンゴル	-10.5443
▁狭	-10.5444
▁創刊	-10.5456
▁損傷	-10.5456
▁描写	-10.5456
▁配給	-10.5456
▁火災	-10.5456
覚	-10.5457
▁品種	-10.5458
▁上演	-10.5458
意	-10.5458
▁ノー	-10.5465
▁ボーナス	-10.5465
虜	-10.5467
▁番線	-10.5468
▁どんな	-10.5471
▁抱	-10.5473
▁畑	-10.5473
正	-10.5475
▁スタジアム	-10.5482
▁言及	-10.5486
▁箇所	-10.5486
倉	-10.5486
▁ロゴ	-10.5486
▁辞書	-10.5486
源	-10.5487
▁丘陵	-10.5488
▁中将	-10.549
▁誤り	-10.549
▁士官	-10.5496
▁ノース	-10.5497
魏	-10.5497
▁パートナー	-10.5498
▁本州	-10.5498
▁カテゴリー	-10.5502
▁隣	-10.5509
▁ほう	-10.5515
▁追放	-10.5516
▁腕	-10.5516
▁MVP	-10.5522
▁学問	-10.5522
▁貞	-10.5525
▁消し	-10.5525
▁集ま	-10.5532
▁侯	-10.5539
▁超え	-10.5545
▁混合	-10.5546
▁死刑	-10.5546
▁生育	-10.5546
▁宮城	-10.5547
▁入場	-10.5548
▁音素	-10.5549
▁罪	-10.5552
▁明るい	-10.5553
▁名付け	-10.5561
▁戸	-10.5565
▁応援	-10.5576
▁近畿	-10.5576
▁活発	-10.5576
▁引用	-10.5577
▁出土	-10.5579
ない	-10.558
▁パート	-10.5581
▁脱	-10.5592
▁新設	-10.5607
圧	-10.5611
▁弱い	-10.5618
▁少なくとも	-10.5619
▁ディスク	-10.562
▁歌う	-10.5622
▁硫	-10.5624
▁柄	-10.5629
▁戦車	-10.5635
▁撤去	-10.5636
額	-10.5637
▁塾	-10.5641
▁どれ	-10.5644
▁伝わる	-10.5647
▁コレクション	-10.5653
▁招	-10.5653
▁秦	-10.5654
▁剣	-10.5658
▁養成	-10.5667
▁単行	-10.5668
▁故郷	-10.5673
▁国王	-10.5675
入	-10.5684
▁下り	-10.5686
▁とどま	-10.5689
▁破	-10.5692
▁つとめ	-10.5697
▁降伏	-10.5697
▁異常	-10.5698
▁個別	-10.5698
オ	-10.5711
▁引	-10.5711
柄	-10.5719
病	-10.572
価	-10.5721
▁土壌	-10.5728
▁相談	-10.5728
▁著者	-10.5728
▁作画	-10.5734
撃	-10.5737
▁おそらく	-10.5737
▁ブル	-10.574
▁アトランタ	-10.574
▁ジャ	-10.574
▁鶴	-10.5741
▁ランク	-10.5745
▁変える	-10.5745
▁水田	-10.5745
▁ベル	-10.5746
▁日曜日	-10.5747
▁氷	-10.5758
▁証拠	-10.5758
▁転換	-10.5758
▁結晶	-10.5759
▁殺害	-10.5759
▁実質	-10.5763
▁戦死	-10.5764
▁もちろん	-10.5768
▁分の	-10.5769
▁ドア	-10.5775
命	-10.5778
▁ガ	-10.5785
▁修士	-10.5789
▁判明	-10.5789
▁制覇	-10.579
▁発音	-10.5792
▁平日	-10.5799
科	-10.5801
▁北米	-10.5802
▁恵	-10.5803
▁勧め	-10.5813
▁防御	-10.582
▁成果	-10.5821
▁胞	-10.5824
▁カッコ	-10.5827
▁ヒト	-10.5828
▁国鉄	-10.583
▁アルコール	-10.5832
▁国語	-10.5833
▁ゴールド	-10.5833
▁グランド	-10.584
▁PC	-10.584
念	-10.5842
▁にくい	-10.5844
骨	-10.5849
▁発声	-10.5852
▁市街	-10.5854
▁池田	-10.5857
▁に従って	-10.5857
▁マシン	-10.5857
▁卿	-10.5863
▁山田	-10.5863
▁温	-10.5866
▁町名	-10.5871
▁胴	-10.5872
▁税	-10.5872
▁丹	-10.5872
▁盛	-10.588
▁茶	-10.5881
▁大手	-10.5881
▁綱	-10.5888
▁膜	-10.5889
▁大名	-10.5889
▁ミサイル	-10.5892
▁オブ	-10.5895
該	-10.5896
▁ポール	-10.5897
▁ショップ	-10.5898
▁通う	-10.5898
刻	-10.59
婚	-10.5907
▁皮膚	-10.5913
▁探索	-10.5913
▁聖堂	-10.5914
▁素材	-10.5914
▁感情	-10.5916
▁理	-10.5918
▁国防	-10.5919
▁にわたる	-10.5923
▁低く	-10.5926
▁法学	-10.5929
▁緊	-10.5932
O	-10.5932
▁伝承	-10.5944
▁境内	-10.5949
▁聞き	-10.5953
▁大字	-10.5954
▁ノミネート	-10.5957
▁動詞	-10.5957
▁もうけ	-10.5957
▁ツール	-10.5962
天	-10.5974
▁不詳	-10.5976
▁育ち	-10.5976
▁船団	-10.5977
▁藩士	-10.5977
▁シ	-10.598
▁入院	-10.5981
▁ドラム	-10.5983
▁戦力	-10.5988
▁ステップ	-10.599
や	-10.5993
▁偏	-10.5994
足	-10.5997
▁早い	-10.6002
▁放射	-10.6006
▁全般	-10.6007
▁講義	-10.6007
▁捕食	-10.6008
▁制服	-10.6009
心	-10.6013
▁優	-10.6017
▁経済学部	-10.6019
▁滝	-10.6032
▁富士	-10.6036
▁デモ	-10.6039
▁彫刻	-10.6039
▁優先	-10.6039
▁発明	-10.604
▁除い	-10.605
▁ファッション	-10.6052
▁YouTube	-10.6054
派	-10.6057
▁もたらし	-10.6057
▁あと	-10.6058
▁沖	-10.6064
▁予算	-10.607
▁鳥取	-10.607
▁通じ	-10.6072
▁観点	-10.6073
▁減	-10.6075
▁賞金	-10.6077
▁療法	-10.6077
▁クリスマス	-10.6083
▁お話し	-10.6094
北	-10.6095
▁織	-10.6096
▁喫	-10.61
▁巨人	-10.6101
▁外観	-10.6103
▁事項	-10.6103
▁原理	-10.6105
▁全然	-10.6105
▁模	-10.6112
▁セルビア	-10.6112
▁時刻	-10.6114
▁耐	-10.6118
▁団地	-10.6119
スター	-10.6121
▁晋	-10.6122
リー	-10.6123
▁一員	-10.6123
▁達し	-10.6129
ニア	-10.6131
▁抗議	-10.6135
▁丘	-10.6137
▁トロント	-10.6144
▁ショッピング	-10.6148
▁化石	-10.6148
▁成り立つ	-10.6148
▁豪	-10.6149
白	-10.6163
▁訴訟	-10.6166
▁顕著	-10.6166
▁附属	-10.6166
▁乗降	-10.6166
▁費用	-10.6168
▁日本テレビ	-10.617
▁導	-10.6176
▁オプション	-10.6178
会	-10.6178
▁天体	-10.6178
▁何とか	-10.6179
▁昼	-10.619
▁け	-10.619
▁おく	-10.6194
▁塗装	-10.6198
D	-10.6198
▁創作	-10.6199
▁能	-10.6201
▁顎	-10.6211
ナー	-10.6218
薬	-10.622
候	-10.6221
▁離	-10.6222
誌	-10.6233
▁オール	-10.6235
▁署	-10.624
▁とにかく	-10.624
▁読ん	-10.6241
▁そうですね	-10.6242
縁	-10.6242
▁ターミナル	-10.6244
治	-10.6245
▁慶	-10.6248
▁促	-10.6249
▁いか	-10.625
▁楕円	-10.6262
▁琉球	-10.6262
▁入隊	-10.6263
▁繊維	-10.6267
▁アメリカン	-10.6269
▁子音	-10.6269
▁社名	-10.627
径	-10.6271
プ	-10.6291
▁竣工	-10.6295
▁守る	-10.6295
▁栄養	-10.6299
▁ロケ	-10.6313
▁キューバ	-10.6315
▁コンピューター	-10.6322
▁支え	-10.6326
▁分散	-10.6328
▁高知	-10.6331
▁制約	-10.6331
▁流行	-10.6332
▁ごろ	-10.6336
▁トレード	-10.6338
▁本土	-10.6339
造	-10.634
▁シリア	-10.6348
▁ちゃ	-10.6353
▁碑	-10.6354
土	-10.6354
▁湿	-10.6357
▁ブラウン	-10.6358
▁近郊	-10.636
▁推移	-10.636
約	-10.6382
▁専属	-10.6392
▁終盤	-10.6393
▁残留	-10.6394
▁役職	-10.6394
▁小林	-10.6394
▁誇る	-10.6395
▁ジム	-10.6395
▁赤色	-10.6395
▁通路	-10.6396
画	-10.6401
▁朝日	-10.6419
▁試	-10.6423
▁ロス	-10.6425
▁獣	-10.6425
▁寿命	-10.6425
▁県道	-10.6426
▁リード	-10.6428
▁収	-10.643
▁ひとり	-10.6432
▁鋼	-10.6433
▁クイズ	-10.6434
▁申し上げ	-10.6438
▁淡	-10.6439
浜	-10.644
▁狭い	-10.644
▁乳	-10.6446
▁教徒	-10.6449
▁勃発	-10.6458
▁発祥	-10.6458
▁山岳	-10.6458
▁合意	-10.6459
▁脱出	-10.6459
▁買っ	-10.646
▁視点	-10.646
▁トン	-10.6461
▁数え	-10.6472
▁厚	-10.6476
▁デザイナー	-10.6476
▁株	-10.6479
弁	-10.6481
▁衣装	-10.6491
▁論争	-10.6491
▁感覚	-10.6492
▁順番	-10.6492
▁史跡	-10.6492
▁リン	-10.6493
▁勝負	-10.6494
▁ラン	-10.6495
▁マップ	-10.6502
嘴	-10.6509
▁前方	-10.651
▁一帯	-10.6513
▁クラ	-10.6519
やが	-10.652
▁紛争	-10.6524
▁温暖	-10.6524
▁変遷	-10.6524
▁提出	-10.6524
▁参謀	-10.6524
▁終結	-10.6525
▁パラ	-10.6525
▁インディアン	-10.6527
▁和歌山	-10.6531
▁ビール	-10.6533
▁マリア	-10.6534
▁サークル	-10.6534
▁全線	-10.6535
タ	-10.6556
▁援助	-10.6557
▁攻略	-10.6557
▁争い	-10.6567
▁良かっ	-10.6568
▁使える	-10.6568
▁ダウンロード	-10.6571
▁処	-10.6579
▁初頭	-10.6586
知	-10.6587
▁満了	-10.6591
▁協定	-10.6591
▁退官	-10.6591
▁流域	-10.6592
▁戦う	-10.6595
▁国土	-10.6598
▁大西洋	-10.6604
▁回路	-10.6606
脈	-10.6607
▁死者	-10.661
▁志	-10.6614
▁アンド	-10.6624
▁回答	-10.6625
▁支社	-10.6625
▁大和	-10.6626
▁法則	-10.6627
▁開拓	-10.6627
▁亀	-10.6636
虫	-10.6637
▁プレーオフ	-10.6637
妙	-10.6639
ドイツ	-10.6644
▁菊	-10.6645
染	-10.6646
▁騎	-10.6646
▁うる	-10.6656
▁証券	-10.6658
▁移植	-10.6658
▁講座	-10.6658
▁兼務	-10.6658
▁花序	-10.6659
▁エ	-10.667
▁ライセンス	-10.667
交	-10.6674
▁布	-10.6677
▁本体	-10.6686
▁指示	-10.6691
▁剣道	-10.6692
▁養	-10.6695
▁液体	-10.6696
▁バトル	-10.6698
▁パッケージ	-10.6704
巣	-10.6704
黒	-10.6715
▁哨戒	-10.6725
▁選ぶ	-10.6726
▁ナショナル	-10.6727
▁肥	-10.6729
▁かかわ	-10.6731
▁テレビ朝日	-10.6738
▁上級	-10.6744
▁辞職	-10.6759
▁特急	-10.6762
▁辺り	-10.6764
▁勲	-10.6764
▁参	-10.6766
▁役者	-10.6768
▁改め	-10.6773
ション	-10.6773
▁ドキュメンタリー	-10.6775
いう	-10.6776
▁加わ	-10.6785
▁要するに	-10.6787
▁到達	-10.6793
▁運航	-10.6793
▁積分	-10.6796
▁遊び	-10.6801
▁大夫	-10.6802
▁東アジア	-10.6804
▁落	-10.6823
▁決意	-10.6827
▁根拠	-10.6828
▁開通	-10.6828
▁入党	-10.6829
ダ	-10.683
▁個々	-10.683
▁だんだん	-10.6837
▁マネージャー	-10.6841
▁皆	-10.6849
▁ちな	-10.685
▁ミ	-10.6851
▁寄り	-10.6857
▁老	-10.686
▁追贈	-10.6861
▁女王	-10.6863
▁差別	-10.6863
▁本当	-10.6864
▁サウス	-10.6865
▁五輪	-10.6865
ボ	-10.6869
▁リリーフ	-10.6871
たび	-10.6874
▁南アフリカ	-10.6875
▁多分	-10.6876
▁探し	-10.6878
▁アルバイト	-10.6879
儀	-10.6881
王	-10.6895
任	-10.6895
▁宣伝	-10.6896
▁最適	-10.6896
▁重量	-10.69
型	-10.6904
▁半ば	-10.6905
▁コンテンツ	-10.6908
学院	-10.6909
▁扉	-10.6918
▁そい	-10.692
▁幸	-10.6922
▁削除	-10.693
▁乗客	-10.6931
▁BGM	-10.6936
▁クレジット	-10.6942
ブ	-10.6945
▁学年	-10.6952
▁伝わ	-10.6955
装	-10.6955
▁都内	-10.6956
▁衛	-10.6963
▁宝	-10.6964
▁連携	-10.6965
▁歌唱	-10.6965
▁芸名	-10.6966
信	-10.6966
▁総督	-10.6968
郷	-10.6968
▁済	-10.697
▁確か	-10.697
▁自民党	-10.6971
よ	-10.6971
▁明治維新	-10.6975
▁黒人	-10.6976
▁プロイセン	-10.6977
▁細長い	-10.6978
▁墳	-10.6981
▁起こす	-10.6981
▁印	-10.6997
▁解消	-10.7
▁負担	-10.7
▁転居	-10.7
▁歩兵	-10.7
▁稲	-10.7011
▁ペット	-10.7013
▁ウェブサイト	-10.7014
▁愛媛	-10.7034
声	-10.7042
わっ	-10.7051
母	-10.7055
▁囲碁	-10.7069
▁競輪	-10.707
▁なか	-10.7072
▁延	-10.7073
▁左側	-10.7073
▁軍団	-10.7075
▁手掛ける	-10.709
需	-10.7091
▁鍵	-10.7092
▁力学	-10.7093
BC	-10.7094
▁泰	-10.71
▁係数	-10.7105
▁消	-10.7107
▁史料	-10.7107
▁粒子	-10.7109
▁リトアニア	-10.7117
防	-10.7117
▁オリ	-10.7117
▁必	-10.7125
▁エージェント	-10.7137
鞭	-10.714
▁爆弾	-10.714
▁降水	-10.7141
▁斉	-10.7141
▁I	-10.7141
▁かかっ	-10.7147
風	-10.7147
▁アナウンス	-10.7152
▁送る	-10.7155
▁山本	-10.7168
▁滑	-10.7168
▁宿泊	-10.7175
▁普段	-10.7175
▁総称	-10.7176
▁変身	-10.7176
▁振動	-10.7176
▁車内	-10.7178
▁恵まれ	-10.7181
▁ジャクソン	-10.7187
▁タンパク質	-10.7187
▁出会い	-10.719
▁バラ	-10.7199
▁舌	-10.7203
▁ハ	-10.7208
▁弱	-10.7208
▁バージニア	-10.7213
▁商人	-10.7216
▁同級生	-10.7217
▁付ける	-10.7222
▁ルーマニア	-10.7223
▁ましょ	-10.7226
▁砂漠	-10.7229
eb	-10.7234
座	-10.724
▁命じ	-10.7241
▁ボード	-10.7245
▁っと	-10.7247
▁ピンク	-10.7252
▁県知事	-10.7254
ザ	-10.7256
▁金メダル	-10.7256
▁ゴールデン	-10.7258
▁一時期	-10.7263
▁ボート	-10.7264
▁いえ	-10.7264
わせ	-10.7269
▁特許	-10.7282
▁売却	-10.7282
▁表紙	-10.7283
▁騎手	-10.7283
▁WB	-10.7287
▁山脈	-10.729
服	-10.7295
▁乗り	-10.7295
▁ジャーナリスト	-10.7297
▁定年	-10.7298
▁に際して	-10.7299
▁紅	-10.7299
▁コーパス	-10.7306
▁ダウン	-10.7306
▁曲線	-10.7308
号	-10.7313
▁牧師	-10.7318
▁雇用	-10.7318
▁仮定	-10.7318
▁比率	-10.7319
▁分ける	-10.7319
▁湿地	-10.7321
▁即位	-10.7321
▁無事	-10.7324
▁大切	-10.7331
▁ロング	-10.7332
▁当たり	-10.7333
▁上り	-10.7333
▁封	-10.7336
▁立つ	-10.7337
▁多か	-10.7346
▁及	-10.7352
▁修復	-10.7354
▁選考	-10.7354
▁融合	-10.7354
▁葬儀	-10.7354
▁通貨	-10.7354
▁飲食	-10.7354
▁配布	-10.7354
▁包囲	-10.7354
▁開校	-10.7358
▁戦士	-10.7362
▁フリーランス	-10.7368
▁液	-10.7372
▁モ	-10.7374
▁飲	-10.7377
▁里	-10.7383
▁射撃	-10.739
▁退役	-10.739
▁水中	-10.7391
▁見つけ	-10.7391
▁結論	-10.7392
▁ゆえ	-10.7393
▁楽	-10.7393
▁絶	-10.7404
▁鏡	-10.7407
炭	-10.7412
▁宋	-10.7414
▁餌	-10.7416
▁松竹	-10.7427
▁楽し	-10.7429
▁選定	-10.743
▁格闘技	-10.7432
▁好み	-10.7433
▁何らかの	-10.7436
▁アレンジ	-10.7439
▁目立つ	-10.7442
▁称する	-10.745
▁銅	-10.7462
▁実況	-10.7463
▁利益	-10.7471
殺	-10.7471
姓	-10.7472
▁医学部	-10.7476
▁プロテスタント	-10.7478
▁有力	-10.7478
▁衰退	-10.7499
▁要塞	-10.7499
▁公認	-10.7499
▁展望	-10.7499
▁ブック	-10.7499
▁質量	-10.75
▁駆	-10.7502
▁コント	-10.7507
▁ハード	-10.7507
▁ドラゴン	-10.7508
▁ケーブル	-10.7508
▁コンクール	-10.7511
落	-10.7519
▁BS	-10.7522
▁嫌	-10.7522
▁期生	-10.7527
▁ダン	-10.7528
▁振り	-10.7531
▁すると	-10.7534
▁遡る	-10.7537
▁君主	-10.7538
▁総務	-10.7538
▁行か	-10.7541
▁ペンシル	-10.7545
▁習	-10.7547
▁キーワード	-10.7548
▁長距離	-10.7548
グ	-10.755
▁アシスタント	-10.7552
▁ラーメン	-10.7554
▁コーヒー	-10.7554
タン	-10.7557
▁繋が	-10.756
▁いっぱい	-10.7566
▁ぜ	-10.757
▁衝撃	-10.7572
▁処刑	-10.7572
▁東日本	-10.7573
スト	-10.7573
▁達する	-10.7577
▁ユーロ	-10.7578
▁レンタル	-10.7582
多	-10.7582
▁ヘッド	-10.7584
▁セント	-10.7584
▁ファイナル	-10.7584
▁キャスター	-10.7584
▁高山	-10.7585
▁至	-10.7585
▁ショート	-10.7587
▁指	-10.7588
▁略	-10.7591
▁テーブル	-10.7596
▁房	-10.7602
▁実践	-10.7609
▁創建	-10.7609
▁山梨	-10.7609
▁空襲	-10.7609
違	-10.761
▁手順	-10.7611
▁逃げ	-10.7611
▁黒色	-10.7612
底	-10.7614
ともに	-10.7631
▁冒	-10.7634
▁俺	-10.7634
▁O	-10.764
▁表彰	-10.7646
▁安打	-10.7647
▁戦艦	-10.7651
味	-10.7652
ハイ	-10.7653
▁スポット	-10.7656
▁辞	-10.7663
▁ヒル	-10.7663
朝	-10.7665
▁前期	-10.7673
湾	-10.768
▁信じ	-10.7681
▁絶滅	-10.7683
▁酸素	-10.7684
▁終点	-10.7684
▁財	-10.7687
▁名乗	-10.7689
▁若者	-10.7693
▁朝鮮半島	-10.7693
▁巡	-10.7694
▁いただい	-10.7695
▁残す	-10.7697
▁モー	-10.7697
術	-10.7699
▁講	-10.771
華	-10.7711
▁監視	-10.7721
▁招集	-10.7721
▁臨床	-10.7721
▁発症	-10.7721
▁終	-10.7725
▁科目	-10.7725
▁内戦	-10.7726
▁細かい	-10.7734
▁演じる	-10.7738
▁国内外	-10.774
▁開く	-10.7744
▁回り	-10.7747
▁憧れ	-10.7751
▁訴え	-10.7751
▁避難	-10.7758
▁接近	-10.7758
▁差異	-10.7759
▁不安	-10.776
▁農家	-10.776
▁中旬	-10.7763
▁急行	-10.7765
▁州都	-10.7765
▁カフェ	-10.7767
▁イスラム	-10.7767
▁句	-10.7768
▁名乗る	-10.7771
こと	-10.7774
▁ジャック	-10.7775
▁予	-10.7776
▁上流	-10.7777
レ	-10.7779
立て	-10.778
この	-10.779
▁運賃	-10.7796
▁構想	-10.7796
▁苦手	-10.7797
▁英雄	-10.7797
▁井上	-10.7797
▁要する	-10.7798
▁休日	-10.7798
▁異動	-10.7798
▁ピン	-10.7801
▁詩人	-10.7801
▁コマンド	-10.7805
▁誘	-10.7806
▁総長	-10.7806
▁リスク	-10.7807
▁ソニー	-10.7809
▁ボランティア	-10.781
▁コントロール	-10.7813
▁アプローチ	-10.7814
▁開け	-10.7814
却	-10.7822
▁魔	-10.7829
映	-10.783
▁循環	-10.7833
▁領土	-10.7834
▁相関	-10.7834
▁高松	-10.7838
▁巡洋艦	-10.7839
▁最年少	-10.7839
▁中野	-10.7842
▁中山	-10.7843
▁三角	-10.7844
o	-10.7845
当たっ	-10.7861
▁挿入	-10.7871
▁呼吸	-10.7871
▁及ぶ	-10.7871
▁秀吉	-10.7871
▁防止	-10.7871
▁習得	-10.7871
▁投入	-10.7871
▁資産	-10.7871
▁鉱山	-10.7873
でも	-10.7874
▁MC	-10.7876
▁夏季	-10.7876
▁スキル	-10.7877
核	-10.7878
▁外見	-10.7879
ノイ	-10.7883
▁並ぶ	-10.7884
LB	-10.7885
▁フィラデルフィア	-10.7887
▁インターチェンジ	-10.7888
▁ヒ	-10.7891
▁営	-10.7892
▁レイ	-10.7898
▁一体	-10.7899
▁陳	-10.7902
▁メートル	-10.7903
▁買収	-10.7909
▁存続	-10.7909
▁恋愛	-10.7909
▁利点	-10.7911
えー	-10.7917
▁シンボル	-10.7919
▁ケンブリッジ	-10.7923
▁ですから	-10.7923
▁間隔	-10.7924
▁体操	-10.7924
▁充	-10.7924
張	-10.793
継ぎ	-10.7934
▁移し	-10.7935
▁人形	-10.7945
▁午前	-10.7947
▁照明	-10.7948
▁奏者	-10.7948
▁生存	-10.7949
▁開館	-10.795
▁信長	-10.7953
▁サウンド	-10.7963
告	-10.7973
▁タン	-10.7974
殖	-10.7975
▁圧	-10.7977
▁灰	-10.7983
願	-10.7983
▁発揮	-10.7986
▁付与	-10.7986
▁師範	-10.7986
▁使	-10.7986
▁アラビア	-10.799
▁観戦	-10.7991
▁神学	-10.7995
▁カラオケ	-10.7995
S	-10.7995
熟	-10.7996
▁寝	-10.7998
▁カーブ	-10.7998
▁結び	-10.7999
▁にあたって	-10.8
学校	-10.8003
福	-10.8003
▁平地	-10.8004
▁南海	-10.8005
牲	-10.8015
犠	-10.8015
▁誤	-10.8018
▁外科	-10.8027
▁実在	-10.8028
▁見解	-10.8028
▁取り付け	-10.8028
▁アルミ	-10.8031
▁共和党	-10.8032
▁押し	-10.8038
▁陰	-10.8042
▁目立	-10.8054
▁満た	-10.8058
▁さえ	-10.8061
▁架空	-10.8063
▁運河	-10.8063
▁基盤	-10.8065
逐	-10.8065
おむ	-10.8069
▁スミス	-10.8074
▁コンセプト	-10.8075
▁標	-10.8077
▁起こり	-10.8077
▁代々	-10.8081
▁所長	-10.8083
▁備	-10.8086
澤	-10.8087
▁灯	-10.8091
ガ	-10.8091
▁警視	-10.8101
▁重複	-10.8102
▁騎士	-10.8102
▁階層	-10.8105
▁海域	-10.8105
▁岩手	-10.8107
▁ペルー	-10.8108
▁強力	-10.8109
▁球場	-10.8109
▁芳	-10.8111
▁引っ越し	-10.8111
▁ファンタジー	-10.8115
距離	-10.8125
▁助け	-10.813
▁摂	-10.8136
▁潜	-10.8139
▁控訴	-10.814
▁提唱	-10.814
▁字幕	-10.8141
ジ	-10.8145
情	-10.8145
▁ファースト	-10.8146
▁コメディ	-10.8147
ち	-10.8148
▁トラブル	-10.815
▁ソース	-10.8152
▁同人	-10.8153
▁増える	-10.8164
▁名所	-10.8164
▁穂	-10.8165
▁フェリー	-10.8172
▁DJ	-10.818
▁祖母	-10.818
▁協議	-10.818
▁祝日	-10.8181
▁河口	-10.8183
▁叔父	-10.8184
▁右側	-10.8184
▁外務省	-10.8187
▁素晴らしい	-10.8192
▁ユニバーサル	-10.8193
傷	-10.8194
▁ユナイテッド	-10.8203
▁岸	-10.8209
ハイオ	-10.8211
説	-10.8211
▁掲げ	-10.8212
▁伸	-10.8214
▁親し	-10.8218
▁見学	-10.8218
▁冒険	-10.8219
▁航海	-10.8219
▁木造	-10.8221
肢	-10.8224
▁定数	-10.8225
▁バス停	-10.8225
▁面白い	-10.823
▁検察	-10.8231
▁ペア	-10.8231
ゴ	-10.8232
▁大都市	-10.8234
▁洋	-10.8239
▁引き起こ	-10.8242
▁伝える	-10.8244
▁ラウンド	-10.8246
▁青い	-10.8246
▁住み	-10.8247
▁セル	-10.8249
▁ライフ	-10.8252
▁申請	-10.8258
▁実写	-10.8258
▁因む	-10.8258
▁駆動	-10.8259
▁食料	-10.826
役	-10.826
▁昼間	-10.8261
▁正教会	-10.8266
▁正しい	-10.8267
▁原子力	-10.8267
▁マスター	-10.8268
▁中断	-10.8269
▁バルセロナ	-10.827
▁向き	-10.8283
▁俊	-10.8284
▁中期	-10.8288
ベニア	-10.8289
▁鬼	-10.8296
▁閲覧	-10.8297
▁意図	-10.8298
▁横断	-10.8298
▁送信	-10.8298
▁因子	-10.83
▁奇麗	-10.8301
▁デ	-10.8301
▁会計	-10.8302
▁左衛門	-10.8304
▁踊り	-10.8305
▁大好き	-10.8309
▁ML	-10.831
▁イラストレーター	-10.8314
▁好ん	-10.8323
▁議	-10.8326
想	-10.8329
▁まとめる	-10.8331
▁才能	-10.8337
▁損害	-10.8337
▁死ぬ	-10.8338
▁連隊	-10.8338
▁起点	-10.8338
▁所蔵	-10.8339
▁在任	-10.8339
▁キ	-10.8339
▁陵	-10.8342
▁刑務所	-10.8343
▁雰囲気	-10.8343
時間	-10.8345
▁ポケモン	-10.8347
▁ジェームズ	-10.8349
▁互いに	-10.8352
▁マサチューセッツ	-10.8354
▁ライター	-10.8354
▁果	-10.8357
こ	-10.8358
▁マッチ	-10.8364
して	-10.8371
▁投与	-10.8377
▁襲撃	-10.8377
▁模型	-10.8378
▁王子	-10.8382
▁出会う	-10.8385
▁土曜日	-10.8385
▁なきゃ	-10.8386
息	-10.8387
▁電池	-10.839
▁犯人	-10.8391
▁隠し	-10.8392
▁セカンド	-10.8393
▁あげる	-10.8399
▁日付	-10.84
カロ	-10.8408
麓	-10.8409
ム	-10.8411
ライナ	-10.8411
浦	-10.8415
F	-10.8416
▁併せ	-10.8417
▁指標	-10.8417
▁魚雷	-10.8417
▁文芸	-10.8419
▁青色	-10.842
▁アテネ	-10.8424
▁ブーム	-10.8426
▁バラエティ	-10.8426
▁法政大学	-10.8427
▁ヘンリー	-10.8427
▁吸	-10.8436
▁お話	-10.8446
▁ボイス	-10.8451
能	-10.8454
▁シャー	-10.8456
▁交響	-10.8457
▁滅亡	-10.8457
▁先輩	-10.8457
▁識別	-10.8457
▁開放	-10.8458
▁大尉	-10.8458
▁再婚	-10.846
養	-10.846
▁女の子	-10.8463
▁戦隊	-10.8468
▁加わる	-10.847
▁資	-10.8479
▁フロント	-10.8481
▁崇	-10.8485
▁バイク	-10.8486
▁静	-10.8488
▁主流	-10.8489
▁誘導	-10.8494
勝	-10.8495
▁梅	-10.8496
ガン	-10.8497
▁締結	-10.8497
▁牡馬	-10.8497
▁招待	-10.8498
▁卒業生	-10.8498
▁魚類	-10.85
▁出席	-10.8503
▁アラブ	-10.8508
▁やって	-10.8511
▁マラソン	-10.8513
▁庁舎	-10.8514
▁チリ	-10.8518
チア	-10.8531
▁カール	-10.8533
▁舞踊	-10.8538
▁週刊	-10.8538
▁本尊	-10.8539
彩	-10.8539
▁産地	-10.854
▁上旬	-10.8541
▁通い	-10.8546
▁触れ	-10.8549
▁ハリウッド	-10.855
▁長編	-10.8552
松	-10.8553
▁歓	-10.8569
▁棟	-10.857
°	-10.8571
一度	-10.8576
ラー	-10.8577
▁端末	-10.8579
▁保管	-10.8579
▁学士	-10.858
▁一環	-10.858
▁香川	-10.8582
▁軟	-10.8582
▁宝塚歌劇団	-10.8591
▁インターナショナル	-10.8596
▁変わり	-10.8598
▁シート	-10.8603
▁ディズニー	-10.8603
熱	-10.8604
▁ストリート	-10.8607
▁太守	-10.862
▁乗馬	-10.8621
▁思い出	-10.8621
▁所管	-10.8623
▁帰化	-10.8623
▁焼	-10.8624
▁珍しく	-10.8626
▁激しく	-10.8626
▁ほしい	-10.8626
▁ナポレオン	-10.8632
▁跨	-10.8641
▁群れ	-10.8644
▁うん	-10.8648
禄	-10.8654
まか	-10.8658
▁推測	-10.866
▁む	-10.8661
▁生態	-10.8662
▁入門	-10.8662
FM	-10.8664
賞	-10.8667
▁ドライブ	-10.867
▁旭	-10.8687
▁見せる	-10.8687
▁照	-10.869
善	-10.8691
▁窓口	-10.8703
▁電波	-10.8703
▁標本	-10.8704
▁室町	-10.8704
▁当局	-10.8707
▁大佐	-10.8707
▁外側	-10.8708
▁兵衛	-10.8708
▁打ち	-10.8709
▁ヒロイン	-10.8711
▁もともと	-10.8712
▁繰り返す	-10.8713
▁去	-10.8716
▁ダイヤ	-10.8716
▁腰	-10.8719
▁刑	-10.872
▁上げる	-10.8738
▁措置	-10.8743
▁踏切	-10.8743
計	-10.8743
▁夫妻	-10.8744
▁以内	-10.8744
▁文明	-10.8746
▁お互い	-10.8749
▁副作用	-10.8749
▁体育館	-10.875
▁ノード	-10.875
▁中核	-10.876
ミ	-10.8761
起	-10.8763
クロア	-10.8765
翼	-10.8767
▁香	-10.877
▁モン	-10.8771
痛	-10.8771
▁代替	-10.8783
▁輩出	-10.8784
▁低迷	-10.8784
▁保障	-10.8784
▁完結	-10.8784
▁参入	-10.8785
▁運命	-10.8785
報	-10.8787
愛	-10.8791
▁だって	-10.8792
▁ロバート	-10.8794
▁取り扱う	-10.8796
▁切り	-10.8798
▁バランス	-10.8802
▁庭	-10.8804
▁市域	-10.8807
▁結婚式	-10.8808
▁タスク	-10.8808
▁栄え	-10.8809
▁たく	-10.8815
▁抑え	-10.882
▁駅名	-10.8822
▁届	-10.8822
▁審判	-10.8826
▁休養	-10.8826
▁港湾	-10.8827
▁師団	-10.8827
▁黄金	-10.8828
▁幹部	-10.8828
▁はず	-10.883
▁位相	-10.883
▁薄い	-10.8832
▁シェア	-10.8834
▁マルチ	-10.8834
▁不思議	-10.8835
▁ブルガリア	-10.8838
▁ローマ帝国	-10.8839
▁ソックス	-10.884
▁ナンバー	-10.8848
激	-10.8851
店	-10.8852
▁髪	-10.8852
▁宣	-10.8853
▁策	-10.8857
良	-10.8858
▁函数	-10.8868
▁所持	-10.887
▁メモリ	-10.8871
ます	-10.8872
▁グラ	-10.8877
▁総領事館	-10.8878
▁リ	-10.8881
▁短期大学	-10.8885
友	-10.8886
▁ある程度	-10.8886
▁貸	-10.8886
▁砦	-10.8898
▁肩	-10.8906
▁遺構	-10.891
▁スロー	-10.8914
▁権限	-10.8915
援	-10.8915
▁草原	-10.8915
▁点在	-10.8917
▁東端	-10.8918
▁書道	-10.8919
▁メニュー	-10.892
アップ	-10.8926
▁まあ	-10.8927
▁功	-10.8933
▁ポリ	-10.8938
▁犯	-10.894
▁武蔵	-10.8951
▁装甲	-10.8951
▁寄付	-10.8952
▁暗殺	-10.8953
▁欠場	-10.8953
▁回収	-10.8954
▁ラテン	-10.8958
ノン	-10.8958
▁教科書	-10.8959
▁プレミア	-10.8962
▁カン	-10.8968
▁陥	-10.898
管	-10.8985
▁交差	-10.8994
▁怪獣	-10.8994
▁皇后	-10.8994
▁屋敷	-10.8994
▁酵素	-10.8995
a	-10.8995
▁近似	-10.8996
▁強調	-10.8997
▁出典	-10.8997
▁荘	-10.8998
▁ゾーン	-10.9001
▁吹き替え	-10.9004
▁呼び	-10.9006
▁津	-10.9006
▁リゾート	-10.9008
▁バード	-10.9015
▁備える	-10.9016
▁大別	-10.9016
▁ランダム	-10.9016
▁描き	-10.902
▁マイク	-10.9023
▁ボン	-10.9031
疑	-10.9036
▁符号	-10.9037
▁推理	-10.9037
▁原料	-10.9039
▁ハート	-10.9045
▁マイケル	-10.9047
▁性別	-10.9053
▁喜	-10.9067
▁歩い	-10.9071
▁録	-10.9078
▁透明	-10.9086
▁題	-10.9086
▁関節	-10.9089
▁表わし	-10.9091
▁メダリスト	-10.9092
変	-10.9097
▁トラ	-10.9101
▁奪	-10.9103
酸	-10.9104
▁線形	-10.9104
▁財務	-10.9104
▁ケ	-10.9109
▁別れ	-10.9109
▁靴	-10.9113
▁滋賀	-10.9123
▁聞く	-10.9123
▁断念	-10.9123
▁衛生	-10.9124
▁圧力	-10.9125
▁孝	-10.9126
▁担う	-10.9127
▁創	-10.9132
▁対称	-10.9142
▁襲	-10.9146
▁フォワード	-10.9148
魚	-10.915
▁日記	-10.9155
▁ペ	-10.9157
▁大学生	-10.9162
▁麻雀	-10.9166
▁競争	-10.9166
▁定住	-10.9166
▁楽団	-10.9166
▁読む	-10.9166
▁品質	-10.9169
▁ナチス	-10.9172
▁売り上げ	-10.9176
▁南極	-10.9176
▁たとえば	-10.9177
▁生える	-10.9178
▁アプリケーション	-10.9182
▁そうした	-10.9185
▁外れ	-10.9185
▁フェ	-10.9188
▁衛門	-10.9188
▁起きる	-10.9189
▁叙	-10.919
▁新幹線	-10.9202
算	-10.9202
▁玄	-10.9206
▁考察	-10.9209
差	-10.9209
▁大輔	-10.921
▁熱心	-10.9211
古	-10.9211
▁回避	-10.9212
▁ボディ	-10.9212
▁客員	-10.9213
▁命中	-10.9213
▁むしろ	-10.9215
▁公務員	-10.9215
▁遊撃手	-10.9215
▁金曜日	-10.9218
▁ゲート	-10.9222
▁エリザベス	-10.9225
▁いつ	-10.9226
ード	-10.9238
▁ユ	-10.9239
▁沼	-10.9241
▁日々	-10.9245
▁寮	-10.9246
属	-10.9249
▁挿絵	-10.9252
▁爆撃	-10.9253
▁強豪	-10.9253
▁便利	-10.9254
▁吹奏楽	-10.9259
▁受け継	-10.926
▁種別	-10.9261
▁ヤング	-10.9262
▁リズム	-10.9262
▁データーベース	-10.9262
▁チベット	-10.9262
▁パキスタン	-10.9265
▁どうしても	-10.927
影	-10.927
▁ベルト	-10.9281
▁駿	-10.9284
死	-10.9284
▁フラン	-10.9286
▁弘	-10.9287
▁平坦	-10.9296
▁補給	-10.9296
▁想定	-10.9296
▁農民	-10.9299
▁単一	-10.93
ラク	-10.93
▁出港	-10.93
▁落とし	-10.9308
▁梁	-10.9309
▁ヒューストン	-10.931
▁重力	-10.9312
▁代数	-10.9323
▁上野	-10.9323
存	-10.9326
チック	-10.9327
▁善	-10.9338
▁八幡	-10.934
▁礼拝	-10.934
▁要請	-10.934
▁証言	-10.934
▁理想	-10.934
▁読売	-10.934
▁財産	-10.934
▁一旦	-10.9341
▁媒体	-10.9341
▁合同	-10.9342
▁薬物	-10.9344
▁遅く	-10.9345
▁カンザス	-10.935
▁絵本	-10.935
▁易い	-10.9351
▁デトロイト	-10.9352
▁ヤンキース	-10.9352
▁ヒーロー	-10.9353
▁待っ	-10.9354
▁チャンス	-10.9357
感	-10.9359
字	-10.9361
鳥	-10.9361
▁平面	-10.9361
民主党	-10.9362
弦楽	-10.9363
▁大宮	-10.9363
販	-10.9377
▁前回	-10.9382
▁航路	-10.9384
▁近衛	-10.9385
▁双子	-10.9385
▁背番号	-10.9391
▁天文学	-10.9391
続	-10.9395
▁フィギュア	-10.9396
▁取り敢えず	-10.9396
▁入部	-10.9397
トン	-10.9399
▁海戦	-10.94
▁主役	-10.9403
▁納	-10.9409
リア	-10.941
▁膝	-10.9416
キー	-10.9422
▁置き	-10.9427
▁充実	-10.9429
▁ステーション	-10.943
▁講談社	-10.9435
▁整	-10.9436
▁ヒトラー	-10.9438
▁遊	-10.9448
▁ルーツ	-10.9449
付	-10.9451
射	-10.9451
記	-10.946
▁約束	-10.9472
▁突起	-10.9473
▁クロ	-10.9474
▁出向	-10.9476
▁スロ	-10.9477
▁佐世保	-10.9479
▁盗	-10.948
▁職人	-10.9482
▁チャールズ	-10.9485
▁ジョンソン	-10.9485
▁数少ない	-10.9487
▁並び	-10.9487
▁健	-10.9489
付け	-10.9492
言	-10.9498
館	-10.9502
▁続	-10.9505
▁嫌い	-10.9505
▁フランク	-10.9513
▁応募	-10.9517
▁最低	-10.9517
▁陥落	-10.9518
▁シュート	-10.9521
▁子役	-10.9522
▁大いに	-10.9526
▁コミューン	-10.953
▁サンディエゴ	-10.9531
▁不要	-10.9532
▁量子	-10.9533
▁都合	-10.9538
▁バン	-10.9542
▁浦	-10.9544
板	-10.9558
留	-10.9559
▁ホ	-10.9561
▁悪魔	-10.9562
▁好評	-10.9562
▁幹事	-10.9563
▁管区	-10.9563
▁首長	-10.9565
▁順に	-10.957
▁タ	-10.957
グアイ	-10.9575
▁シミュレーション	-10.9579
さん	-10.958
▁わかっ	-10.959
▁漫才	-10.9607
▁沈没	-10.9607
▁赴任	-10.9607
▁艦艇	-10.9608
▁浦和	-10.9608
▁支流	-10.9608
▁コマ	-10.961
▁消え	-10.961
▁岡田	-10.9612
▁立候補	-10.9614
▁ハンド	-10.9614
▁交差点	-10.9614
▁泊	-10.9615
▁ダブル	-10.9615
▁西端	-10.9616
ーズ	-10.9623
▁テロ	-10.9628
▁刀	-10.9633
正面	-10.9635
▁魅力	-10.9653
▁格闘	-10.9653
▁造船	-10.9653
▁僅か	-10.9653
▁広報	-10.9654
▁渡米	-10.9655
▁アリゾナ	-10.9662
▁ライバル	-10.9662
▁手続き	-10.9663
▁名人	-10.9664
▁マネジメント	-10.9666
▁語る	-10.9677
▁国体	-10.9684
堂	-10.9687
▁ボックス	-10.9691
▁遺伝	-10.9697
▁医者	-10.9697
▁肖像	-10.9698
▁土俵	-10.9698
▁東大	-10.9699
▁反発	-10.9701
▁時々	-10.9702
▁二男	-10.9703
▁染	-10.9704
▁第一人者	-10.9708
▁ミネソタ	-10.9708
▁失う	-10.9709
▁ピアニスト	-10.971
▁ポート	-10.9711
律	-10.9711
▁権力	-10.9714
次	-10.9722
▁止め	-10.973
▁甥	-10.9731
▁文部	-10.9732
▁それに	-10.9739
▁船舶	-10.9744
▁意思	-10.9744
▁三菱	-10.9744
▁卓球	-10.9744
▁家畜	-10.9744
▁修行	-10.9745
▁付く	-10.9746
▁成る	-10.9747
▁タッグ	-10.975
▁出入口	-10.975
▁未だ	-10.9751
▁建国	-10.9752
▁溶	-10.9758
▁元素	-10.9759
▁プログラミング	-10.9763
▁音楽家	-10.9773
ったく	-10.9775
▁寿	-10.9776
泉	-10.9781
▁誠	-10.9785
塞	-10.9788
▁控え	-10.979
▁審議	-10.979
▁幕末	-10.979
丘	-10.979
▁就く	-10.9795
▁車種	-10.9798
▁入口	-10.9798
▁飛行場	-10.9799
▁打ち上げ	-10.9799
難	-10.9804
送	-10.9806
▁パーティー	-10.9807
▁宅	-10.9808
▁架	-10.9812
▁元気	-10.9817
▁恩	-10.9823
永	-10.9824
▁棒	-10.9825
▁桂	-10.9827
▁細菌	-10.9836
▁無視	-10.9838
▁接	-10.9838
▁芝居	-10.9842
▁ウェイ	-10.9846
▁三郎	-10.9846
▁マドリード	-10.9848
▁フォーク	-10.9852
▁甘	-10.9855
▁面する	-10.9856
臣	-10.9859
▁潮	-10.9872
打	-10.9881
▁秘書	-10.9882
▁検定	-10.9882
▁判事	-10.9883
▁キロ	-10.9885
▁王朝	-10.9885
▁抱え	-10.9885
▁WWE	-10.9888
▁天気	-10.989
▁短期間	-10.989
▁グラビア	-10.9892
▁エドワード	-10.9894
▁白人	-10.9896
▁ストレス	-10.9901
▁暦	-10.9902
▁プラン	-10.9912
▁峠	-10.9923
▁中島	-10.9924
▁使え	-10.9925
▁煙	-10.9927
▁努力	-10.9928
▁焦点	-10.9928
▁宝塚	-10.9928
▁御覧	-10.9929
▁散歩	-10.9929
▁硬式	-10.993
▁鳥類	-10.993
▁持続	-10.9931
▁西武	-10.9931
▁公職	-10.9932
▁協	-10.9935
▁楽しみ	-10.9936
▁日本一	-10.9936
▁東海道	-10.9936
▁満足	-10.9938
紀	-10.9939
▁ブルース	-10.994
▁グラウンド	-10.9946
▁水平	-10.9952
▁クロス	-10.9953
隊	-10.9958
司	-10.9959
▁傷	-10.9969
▁恐れ	-10.997
▁縮小	-10.9975
▁補佐	-10.9975
▁砲撃	-10.9976
▁農村	-10.9978
▁宇都宮	-10.9979
ビア	-10.9981
▁引く	-10.9984
▁道場	-10.9985
▁ウェールズ	-10.9987
▁オフィシャル	-10.9989
▁浅	-10.9992
▁トム	-10.9992
▁イリ	-11.0007
年度	-11.0008
▁喉	-11.0009
▁菅	-11.0009
FA	-11.0009
▁戦場	-11.0009
▁暴力	-11.0022
▁浜松	-11.0022
▁配列	-11.0022
▁瞬間	-11.0023
▁大蔵	-11.0028
▁非常勤	-11.0029
▁シアトル	-11.0032
▁フライ	-11.0032
▁ラテン語	-11.0033
▁やり方	-11.0033
▁モーニング	-11.0034
▁検	-11.0039
▁グラフィック	-11.0041
▁並べ	-11.0043
▁タイガース	-11.0047
▁輔	-11.0054
▁進める	-11.0054
▁公募	-11.0069
▁埋め	-11.007
▁装着	-11.0071
▁沿線	-11.0073
▁前提	-11.0073
▁留	-11.0074
▁ちなむ	-11.0075
▁三角形	-11.0076
▁受信	-11.0077
▁聞か	-11.0077
▁最長	-11.0079
▁オスマン	-11.008
▁ターゲット	-11.0081
▁バイエルン	-11.0081
▁ビーチ	-11.0083
▁わり	-11.0083
▁クリーブランド	-11.0084
▁ベイ	-11.0086
テ	-11.0087
▁狙	-11.0088
▁バ	-11.0091
▁殿	-11.0096
お	-11.011
▁大気	-11.0115
杉	-11.0115
▁先駆	-11.0116
▁探偵	-11.0116
▁燃	-11.0117
▁茶色	-11.0117
▁紫色	-11.0118
▁再選	-11.0119
▁氏族	-11.012
▁動く	-11.0121
ミン	-11.0122
▁決まる	-11.0123
▁寄せ	-11.0123
節	-11.0123
▁無か	-11.0126
▁コロラド	-11.0126
▁リハビリ	-11.0126
▁会館	-11.0128
▁ダンサー	-11.0129
▁ブレーブス	-11.0129
▁供	-11.013
▁アフガニスタン	-11.0132
▁ステークス	-11.0133
▁フェスティバル	-11.0136
象	-11.0138
階	-11.0141
▁組み込	-11.0144
▁高木	-11.0147
▁大島	-11.0153
ホ	-11.0154
志	-11.0157
▁原産	-11.0164
趙	-11.0164
▁交易	-11.0165
▁フットボール	-11.0165
▁運輸	-11.0168
▁聴覚	-11.0168
▁選択肢	-11.0172
▁小田	-11.0176
芸	-11.0176
▁多摩	-11.0176
▁下位	-11.0178
やか	-11.0179
▁コミックス	-11.0179
▁マーケティング	-11.0179
習	-11.018
▁中東	-11.0184
▁ショック	-11.0189
▁アウト	-11.0192
▁毎月	-11.0194
▁真珠	-11.0212
▁洪水	-11.0212
髄	-11.0212
▁感謝	-11.0212
▁鉱物	-11.0213
閉	-11.0213
▁家康	-11.0214
▁やす	-11.0215
▁殺し	-11.0217
▁巻き	-11.0218
▁圧倒的	-11.0219
林	-11.0223
宗	-11.0226
▁間違い	-11.023
▁テン	-11.023
▁出口	-11.0232
▁ベンチ	-11.0246
▁チャ	-11.0251
▁詞	-11.0258
▁演算	-11.026
▁違反	-11.026
甲斐	-11.026
粋	-11.0261
▁文脈	-11.0263
▁限界	-11.0263
▁伝道	-11.0263
▁佐々木	-11.0266
▁独学	-11.0269
▁モロッコ	-11.027
▁ドジャース	-11.0272
▁軒	-11.0273
▁人種	-11.0286
▁あたり	-11.0295
▁普	-11.0296
▁+	-11.0296
▁フォン	-11.03
▁ちゃんと	-11.0301
炎	-11.0303
▁,	-11.0303
▁聴	-11.0304
▁哺乳	-11.0308
▁教区	-11.0311
▁決して	-11.0316
▁警察官	-11.0318
保安	-11.0319
▁生かし	-11.032
▁L	-11.0322
▁ファミリー	-11.033
▁医薬	-11.0331
▁内側	-11.0333
▁広げ	-11.0336
▁争	-11.0337
球	-11.0338
▁ボー	-11.0338
▁虹	-11.0345
▁礼	-11.0349
災	-11.0354
▁伯爵	-11.0357
▁搭乗	-11.0357
▁俳句	-11.0357
▁救助	-11.0357
▁新作	-11.0357
▁併用	-11.0357
▁良好	-11.0358
▁幾何	-11.0358
▁済み	-11.0358
▁入省	-11.0359
▁広域	-11.036
▁PV	-11.0363
▁ガード	-11.0363
コース	-11.0364
▁双	-11.0366
▁に従い	-11.0368
▁セントルイス	-11.0371
▁阪神タイガース	-11.0372
▁そんなに	-11.0374
船	-11.0375
▁除	-11.0385
▁寄	-11.0388
▁棘	-11.0393
▁遼	-11.0393
リング	-11.0395
▁苦	-11.0398
▁構え	-11.0405
▁垂直	-11.0406
▁施工	-11.0406
▁産出	-11.0409
▁老人	-11.0409
▁乗り入れ	-11.0409
▁ベン	-11.0411
向	-11.0411
罪	-11.0413
▁銀メダル	-11.0416
▁ピーク	-11.0417
▁千代	-11.0419
▁プラットフォーム	-11.0422
オフ	-11.0438
▁寧	-11.0439
▁柏	-11.044
▁朱	-11.0442
▁はじめる	-11.0444
▁望	-11.0449
巻	-11.045
▁降り	-11.045
▁洛	-11.0452
▁狩猟	-11.0455
▁考案	-11.0455
▁保健	-11.0455
▁摂取	-11.0455
▁天使	-11.0455
▁夕方	-11.0456
工業	-11.0456
キスタン	-11.0456
▁感じる	-11.0456
ター	-11.0457
▁Y	-11.0458
▁皇	-11.0459
▁出店	-11.0461
▁真ん中	-11.0461
▁聖人	-11.0465
寿	-11.0468
▁授	-11.0471
美	-11.0474
受け	-11.0474
糖	-11.0477
▁操	-11.0479
▁アリ	-11.0482
▁糖	-11.0483
▁混	-11.0484
▁上場	-11.0494
ビジョン	-11.05
▁倒れ	-11.0501
▁動か	-11.0502
▁流し	-11.0503
▁予防	-11.0504
▁逃れ	-11.0507
▁懸	-11.0509
▁尉	-11.051
▁歌舞伎	-11.051
▁主婦	-11.051
▁NBA	-11.051
▁こなす	-11.0512
▁始動	-11.0512
▁総会	-11.0512
▁貧	-11.0516
▁Twitter	-11.0519
▁孔	-11.0521
▁DF	-11.0526
曜日	-11.0529
▁岡	-11.0539
▁芸	-11.0542
▁習慣	-11.0553
▁逃亡	-11.0553
▁除去	-11.0554
▁やら	-11.0555
▁円形	-11.056
▁三浦	-11.0561
▁分間	-11.0565
▁セッション	-11.0566
▁さっき	-11.0567
▁行方	-11.0567
▁変異	-11.0569
▁サウンドトラック	-11.057
▁下流	-11.057
▁タワー	-11.0571
▁チェック	-11.0571
▁小野	-11.058
▁おこなっ	-11.0581
▁通し	-11.059
▁筑波	-11.0601
▁甲板	-11.0604
▁特集	-11.0605
▁脇	-11.0606
▁主宰	-11.0607
▁羊	-11.0607
▁トヨタ	-11.0609
▁歯科	-11.0611
▁北九州	-11.0612
▁遠く	-11.0612
▁明か	-11.0613
▁ゆっくり	-11.0613
▁チケット	-11.0613
▁ユニフォーム	-11.0617
▁引き起こす	-11.0617
▁かん	-11.062
武	-11.0623
▁テープ	-11.0627
暦	-11.0629
▁腎	-11.063
▁牧	-11.0631
▁各社	-11.0632
▁濃い	-11.0632
▁ょ	-11.0642
▁鎮	-11.0649
▁鉱	-11.065
▁堪能	-11.0653
▁損失	-11.0653
▁月刊	-11.0653
▁検証	-11.0653
▁宮廷	-11.0653
▁技師	-11.0654
▁治安	-11.0654
▁骨折	-11.0654
▁反射	-11.0654
▁改装	-11.0654
▁総裁	-11.0656
▁証	-11.0656
肉	-11.0662
▁銅メダル	-11.0663
▁再会	-11.0664
司教	-11.0666
▁留学生	-11.0666
▁ブルックリン	-11.0667
▁本数	-11.0668
▁一郎	-11.0671
▁名門	-11.0672
▁人権	-11.0676
▁そん	-11.0677
▁ト	-11.0684
▁呂	-11.0689
ウル	-11.069
値	-11.0696
がっ	-11.0696
景	-11.0697
▁ブラ	-11.0699
▁筋肉	-11.0703
▁男爵	-11.0703
▁宮殿	-11.0704
▁配備	-11.0704
▁要件	-11.0704
▁荒川	-11.0706
▁初演	-11.0708
▁最下位	-11.071
▁ダメージ	-11.0713
▁ロータリー	-11.0716
▁広がり	-11.0716
ブル	-11.0718
▁勇	-11.0719
▁後日	-11.0724
里	-11.0726
▁マル	-11.0726
▁テレビ東京	-11.0726
▁ステ	-11.0731
森	-11.0732
▁芝	-11.0739
▁愛し	-11.0742
▁韓	-11.0744
摩	-11.0744
▁細い	-11.075
▁止ま	-11.075
導	-11.0751
▁倉庫	-11.0754
▁侵入	-11.0754
▁信濃	-11.0754
▁園芸	-11.0754
▁人事	-11.0755
=	-11.0757
▁現状	-11.0757
▁技法	-11.0757
近	-11.0758
より	-11.076
▁奉行	-11.076
▁シニア	-11.0761
▁マイナス	-11.0764
▁光学	-11.0765
▁リチャード	-11.0766
▁レーダー	-11.0768
▁やめ	-11.078
▁定める	-11.0783
▁ピット	-11.0783
その	-11.0785
▁帰る	-11.0787
園	-11.0787
▁水道	-11.0794
東日本	-11.0798
▁後任	-11.0801
▁掛か	-11.0804
▁営む	-11.0805
▁南端	-11.0805
▁身分	-11.0808
▁モノ	-11.0808
▁三塁手	-11.0811
▁大韓民国	-11.0814
▁戦術	-11.0818
ワ	-11.0818
▁ヘリコプター	-11.0819
黄	-11.0819
▁日程	-11.0829
▁刻	-11.0831
房	-11.084
▁賢	-11.0844
▁霧	-11.0847
撮	-11.0849
▁診療	-11.0856
▁謝罪	-11.0856
▁確実	-11.0856
▁通勤	-11.0856
▁入居	-11.0856
▁創造	-11.0856
▁進歩	-11.0856
▁牧場	-11.0857
▁軽量	-11.0857
▁欠	-11.0857
准	-11.0859
腺	-11.0859
▁首位	-11.0861
▁穏やか	-11.0862
▁ビッグ	-11.0862
▁ミラノ	-11.0862
▁ベッド	-11.0862
▁考古学	-11.0862
▁束	-11.0863
▁無し	-11.0865
▁割り当て	-11.0866
▁出馬	-11.0867
▁ゆく	-11.0867
あたっ	-11.0869
ロ	-11.0871
▁させ	-11.0872
▁青山	-11.0872
▁なき	-11.0874
▁つながる	-11.0877
▁成田	-11.0885
壁	-11.0886
▁中国語	-11.0886
▁かける	-11.0893
▁奉	-11.0894
▁工学部	-11.0895
塔	-11.0898
▁登	-11.0898
▁捉え	-11.09
果	-11.0903
▁譲渡	-11.0907
▁すぎ	-11.0907
▁相対	-11.0908
▁電流	-11.091
メニア	-11.0911
▁厳しく	-11.0913
▁不安定	-11.0914
▁大震災	-11.0915
▁習い	-11.0917
▁用法	-11.092
▁ガイド	-11.0921
▁ハンドボール	-11.0921
幹	-11.0925
▁亡くなる	-11.0938
町	-11.0942
▁涙	-11.0946
▁離れる	-11.0952
▁嵐	-11.0953
▁コンクリート	-11.0955
▁美濃	-11.0956
▁沈	-11.0957
▁座標	-11.0959
▁入植	-11.0959
▁岡崎	-11.0959
▁田園	-11.096
▁糸	-11.0961
▁増大	-11.0963
▁パーツ	-11.0965
▁門人	-11.0965
▁虫	-11.0965
聖	-11.0966
▁釈放	-11.0966
▁共産	-11.0968
▁パレス	-11.0969
▁重み	-11.0972
▁タイアップ	-11.0973
▁集まる	-11.0974
▁ベラ	-11.0974
▁チャレンジ	-11.0975
▁信者	-11.0975
▁せよ	-11.0979
▁生え	-11.0988
布	-11.0997
▁尼	-11.0998
▁免	-11.1002
憲	-11.1008
▁傾斜	-11.101
▁非難	-11.1012
▁不良	-11.1012
▁脅	-11.1014
▁量産	-11.1015
▁ノート	-11.1015
▁和名	-11.1015
▁越え	-11.1015
▁形容詞	-11.1016
▁ク	-11.1017
▁月曜日	-11.102
▁OVA	-11.102
▁もらう	-11.102
▁ちゃう	-11.102
▁もたらす	-11.1021
▁イスラーム	-11.1023
▁ハミルトン	-11.1023
▁位置づけ	-11.1024
▁取り扱い	-11.1032
T	-11.1035
雨	-11.1037
▁挟	-11.104
▁集める	-11.1041
▁ウッド	-11.1044
架	-11.1045
▁弓	-11.1052
▁物体	-11.106
▁スリー	-11.1062
▁編纂	-11.1062
▁繁栄	-11.1062
▁騒動	-11.1062
▁東芝	-11.1063
▁主人	-11.1064
▁厚生	-11.1064
▁入会	-11.1067
▁所得	-11.1068
▁お願い	-11.1069
▁静か	-11.1074
▁基づき	-11.1077
▁伸びる	-11.108
▁動力	-11.1083
▁実力	-11.1083
▁触れる	-11.1084
▁驚	-11.1087
▁船体	-11.1089
▁せい	-11.109
ず	-11.1091
▁?	-11.1102
▁燕	-11.1102
▁パック	-11.1103
獲	-11.1107
▁パー	-11.1109
▁偵察	-11.1115
▁探検	-11.1115
▁牝馬	-11.1115
▁国旗	-11.1118
▁回帰	-11.112
▁暮らす	-11.1121
▁隊員	-11.1122
▁総理	-11.1122
▁まれ	-11.1124
▁わかる	-11.1124
血	-11.1125
▁つもり	-11.1125
▁次ぐ	-11.1126
▁主導	-11.1127
▁高め	-11.1127
▁社会党	-11.1129
▁アイスランド	-11.1129
雑	-11.1131
うち	-11.1133
▁斎	-11.1135
▁従う	-11.1147
▁おい	-11.1149
証	-11.1165
▁独占	-11.1167
▁認証	-11.1167
▁必須	-11.1167
▁態度	-11.1168
▁阪急	-11.1168
▁向かい	-11.1169
典	-11.1171
▁近江	-11.1172
▁大納言	-11.1173
▁ホラー	-11.1174
▁天井	-11.1174
▁マスク	-11.1178
▁指数	-11.1178
▁ビット	-11.1179
▁セントラル	-11.118
▁ヘッドコーチ	-11.1181
▁リオデジャネイロ	-11.1184
▁住	-11.1184
▁ゲイ	-11.1186
ロン	-11.1186
▁室内	-11.1193
▁影	-11.1197
▁レン	-11.1201
▁太子	-11.1201
▁譜	-11.1212
▁小川	-11.1216
▁応答	-11.122
▁放棄	-11.122
▁EU	-11.1221
▁現職	-11.1224
▁五十	-11.1225
▁RPG	-11.1226
▁集会	-11.1228
喜	-11.123
▁レーザー	-11.123
▁ピッツバーグ	-11.1234
▁亡く	-11.1235
▁アルファベット	-11.124
保	-11.1241
功	-11.1241
▁太田	-11.1242
▁賛	-11.125
▁出会	-11.1254
▁あん	-11.1268
▁率い	-11.1273
▁一新	-11.1274
▁緊張	-11.1274
▁即ち	-11.1274
▁権威	-11.1274
▁短縮	-11.1275
▁剛	-11.1275
▁恋人	-11.1278
▁立法	-11.1279
▁とる	-11.128
▁楽しむ	-11.128
▁新しく	-11.1282
▁スマート	-11.1283
▁最寄り駅	-11.1284
▁途	-11.1287
▁オレ	-11.1289
▁上手	-11.1291
▁タグ	-11.1299
▁着陸	-11.13
▁推	-11.1301
▁弦	-11.1303
▁前日	-11.1305
▁一角	-11.1309
士	-11.1318
南米	-11.1319
▁官僚	-11.1327
▁監査	-11.1327
▁以南	-11.1327
▁削減	-11.1327
▁楽章	-11.1327
▁斜め	-11.1327
▁延期	-11.1328
▁署名	-11.1329
▁漁	-11.133
▁幼虫	-11.133
▁栗	-11.1335
▁小屋	-11.1336
▁バイパス	-11.1337
▁部族	-11.1337
▁インド洋	-11.1338
▁アーケード	-11.1339
▁キャンペーン	-11.1341
▁グラム	-11.1341
▁i	-11.1343
疫	-11.1343
▁カンヌ国際映画祭	-11.1343
▁ぶ	-11.1343
▁ダイヤモンド	-11.1344
磨	-11.1345
▁しっかり	-11.1346
一	-11.1346
▁オブジェクト	-11.1349
ティ	-11.135
▁オーナー	-11.1352
▁ウ	-11.1352
▁瀬戸内	-11.1355
▁なす	-11.1358
集	-11.1361
▁阿	-11.1364
シュ	-11.1366
▁化粧	-11.1381
▁駐屯	-11.1381
▁欠点	-11.1381
▁将校	-11.1384
▁金額	-11.1384
▁花火	-11.1385
▁旗本	-11.1386
▁ライヴ	-11.1387
▁とりわけ	-11.1391
▁にあたり	-11.1391
▁尊	-11.1402
石器	-11.1403
▁水路	-11.1404
9	-11.1406
▁帰り	-11.141
工科	-11.1411
▁ミリ	-11.1413
▁偽	-11.1422
▁契	-11.1422
▁瞳	-11.1422
▁邦	-11.1428
▁係	-11.143
▁騎兵	-11.143
▁不可	-11.1434
▁収束	-11.1435
▁棋士	-11.1435
▁対決	-11.1435
▁知覚	-11.1435
▁左翼	-11.1437
▁書記	-11.1437
▁動機	-11.1439
▁振り返	-11.144
▁羅	-11.1441
テネ	-11.1445
坂	-11.1447
▁同意	-11.145
▁マンチェスター	-11.145
▁競	-11.1451
▁生み出	-11.1451
▁炭素	-11.1462
▁同型	-11.1462
▁コア	-11.1464
▁亮	-11.1476
▁函館	-11.1489
▁三木	-11.1489
▁和解	-11.149
▁題名	-11.149
▁消化	-11.1491
▁不能	-11.1491
▁JA	-11.1493
▁スカイ	-11.1495
▁繁	-11.1495
在	-11.1496
▁後退	-11.1499
▁籍	-11.15
▁ウェブ	-11.1501
▁走り	-11.1503
ベルク	-11.1504
▁ユーゴスラビア	-11.1504
▁桃	-11.1505
▁タイヤ	-11.1509
▁上田	-11.1509
▁取れ	-11.1511
▁売れ	-11.1513
▁動い	-11.1515
▁動	-11.1525
▁硬	-11.1525
▁庶	-11.1529
▁胃	-11.1531
▁典	-11.1535
区	-11.1538
奥	-11.1539
▁保育	-11.1544
▁起訴	-11.1544
▁帰郷	-11.1545
▁幸せ	-11.1545
▁洲	-11.1546
▁観賞	-11.1546
▁知名	-11.1546
▁対義語	-11.155
噂	-11.1551
昧	-11.1551
出し	-11.1553
▁没後	-11.1556
▁荒	-11.1558
▁機材	-11.1558
返し	-11.1561
▁逃	-11.1562
▁生きる	-11.1569
▁語ら	-11.1584
▁努め	-11.1592
▁攻め	-11.1592
▁洗礼	-11.1599
▁鎮守	-11.1599
▁復元	-11.1599
▁盛岡	-11.1599
バス	-11.1601
▁廃車	-11.1602
▁ウズベ	-11.1605
▁再編	-11.1606
▁作風	-11.1609
▁着手	-11.1611
▁アムステルダム	-11.1614
話	-11.1615
片	-11.1617
焼	-11.162
▁京都大	-11.162
▁エア	-11.1622
▁楽しい	-11.1625
▁教える	-11.1628
H	-11.163
▁曖	-11.1641
覧	-11.1642
▁メタ	-11.1643
▁嫡男	-11.1654
▁嫡子	-11.1654
▁徹底	-11.1654
▁心配	-11.1656
▁グッズ	-11.166
▁浸	-11.1662
▁ユニオン	-11.1664
▁タンク	-11.1664
ローテーション	-11.1665
▁サイドバック	-11.1668
▁に関しまして	-11.1669
頃	-11.1671
▁本店	-11.1675
らっ	-11.1678
関	-11.1681
▁ヶ月	-11.1681
▁ヘビ	-11.1683
池	-11.1683
▁受	-11.1685
▁今年	-11.1692
▁窒	-11.1697
▁侵略	-11.1709
▁採掘	-11.1709
▁電磁	-11.171
▁工程	-11.171
▁首席	-11.171
▁焼き	-11.1711
▁暗号	-11.1711
▁倒す	-11.1711
TP	-11.1712
▁任官	-11.1713
▁順調	-11.1714
▁レッスン	-11.1719
▁橋本	-11.1726
▁割引	-11.1733
▁注	-11.1733
▁テレビ局	-11.1733
太	-11.1733
▁幹	-11.174
▁粘	-11.175
▁雷	-11.1751
イズ	-11.1756
ープ	-11.1757
▁OS	-11.1761
▁土曜	-11.1763
▁寄与	-11.1765
▁逆転	-11.1766
▁当て	-11.1766
▁動員	-11.1767
▁構文	-11.1767
▁源流	-11.1768
▁樹木	-11.1769
▁小倉	-11.1769
▁領主	-11.177
▁それでは	-11.177
▁林業	-11.1771
▁特色	-11.1772
▁知的	-11.1772
▁増やし	-11.1772
▁大坂	-11.1775
▁外来	-11.1776
▁レンズ	-11.1777
▁ジョーンズ	-11.1778
▁隠	-11.1778
▁唇	-11.1787
▁ドーム	-11.179
▁蓋	-11.179
▁矛盾	-11.1791
▁代わ	-11.1802
▁やっぱ	-11.1802
▁鹿	-11.1809
▁書店	-11.1814
▁ペン	-11.1815
▁報酬	-11.1821
▁奨励	-11.1821
▁洞窟	-11.1821
▁受託	-11.1821
▁評判	-11.1821
▁統括	-11.1821
▁合う	-11.1822
▁暗い	-11.1823
▁物資	-11.1823
▁徴	-11.1823
史	-11.1824
合衆国	-11.1826
当	-11.1827
▁末っ子	-11.1828
▁非公開	-11.1829
▁プレ	-11.1829
l	-11.183
▁ポケット	-11.1831
▁もらい	-11.1832
▁ゲージ	-11.1834
▁ルイス	-11.1837
▁譲	-11.1838
▁第一	-11.1839
▁代行	-11.1843
ーリ	-11.1849
▁会見	-11.1852
▁入り口	-11.1856
▁マリオ	-11.1859
▁中高	-11.186
▁相次	-11.187
▁水産	-11.187
▁KO	-11.1875
癌	-11.1876
▁日曜	-11.1877
▁遷移	-11.1878
▁療養	-11.1878
▁蘭	-11.1878
漢	-11.1879
▁基調	-11.1882
▁カレー	-11.1883
▁アイヌ	-11.1884
▁コイン	-11.1885
▁メアリー	-11.1888
齢	-11.1888
▁グローバル	-11.189
▁ベネズエラ	-11.189
▁ケイ	-11.1891
▁クリスチャン	-11.1892
▁部位	-11.1898
▁終える	-11.1905
歯	-11.1906
▁ラム	-11.1915
▁プレス	-11.1923
▁監	-11.1925
丸	-11.1933
▁諏訪	-11.1935
▁闘争	-11.1935
▁創始	-11.1935
▁少尉	-11.1935
▁演説	-11.1935
▁抽選	-11.1935
▁党首	-11.1935
▁看板	-11.1935
▁不振	-11.1935
▁職務	-11.1937
▁借り	-11.1937
▁株式	-11.1937
▁駅伝	-11.1938
▁上述	-11.1939
▁田舎	-11.1939
▁課長	-11.194
▁順次	-11.194
▁望遠鏡	-11.1941
▁仕組み	-11.1941
▁光沢	-11.1941
▁赤褐色	-11.1941
▁電化	-11.1942
▁ラバ	-11.1943
▁高田	-11.1944
▁マガジン	-11.1944
▁炭	-11.1945
響	-11.1945
▁プレゼント	-11.1947
▁イスラム教	-11.1948
▁埋	-11.1948
▁若く	-11.1953
▁西口	-11.1955
▁セグメント	-11.1956
▁マイ	-11.1969
港	-11.1971
▁綿	-11.1973
▁嘉	-11.1979
▁ネーム	-11.1985
罰	-11.1988
▁突入	-11.1992
▁鷹	-11.1992
▁解任	-11.1993
▁出雲	-11.1994
▁原稿	-11.1994
▁クエスト	-11.1998
▁セーブ	-11.1998
▁図書	-11.2001
▁患	-11.2001
▁キーボード	-11.2004
▁ミニゲーム	-11.2005
▁オークランド	-11.2006
▁速い	-11.201
▁歩く	-11.2011
▁多用	-11.2011
▁益	-11.2012
▁町村	-11.2013
▁そば	-11.2023
▁象	-11.2026
▁切れ	-11.2037
垣	-11.204
▁母国	-11.2041
▁丁	-11.2041
▁ヘ	-11.2042
▁不満	-11.2042
▁禁	-11.2047
霊	-11.2047
▁ロッテ	-11.2048
▁意向	-11.205
▁対照	-11.205
▁電報	-11.2051
▁忠実	-11.2051
岩	-11.2052
▁人名	-11.2052
▁甲府	-11.2052
▁浜	-11.2052
▁固体	-11.2053
▁都心	-11.2054
▁直ちに	-11.2055
▁向こう	-11.2056
▁水準	-11.2057
▁武蔵野	-11.2058
▁回想	-11.2059
▁コーラス	-11.2059
▁内務省	-11.206
伊	-11.206
▁捨て	-11.2061
▁自由党	-11.2062
▁メカニズム	-11.2062
▁モントリオール	-11.2065
シティ	-11.2068
▁見つける	-11.2071
▁巡り	-11.2073
▁上がり	-11.2073
▁主任	-11.2078
▁改めて	-11.2084
W	-11.2085
▁いち	-11.2087
▁すら	-11.2094
▁戦績	-11.2107
▁顧客	-11.2107
▁抑制	-11.2107
▁移管	-11.2108
メント	-11.2108
▁直通	-11.2109
▁石垣	-11.2109
▁開花	-11.2111
麗	-11.2113
▁干	-11.2113
▁小惑星	-11.2114
▁高温	-11.2115
▁ワクチン	-11.2117
▁重点	-11.2117
▁堅	-11.213
▁SC	-11.2134
▁則	-11.2138
▁昇	-11.2149
都立	-11.2155
▁ざ	-11.2163
▁痕跡	-11.2165
▁標識	-11.2165
▁少佐	-11.2166
▁付加	-11.2166
▁加熱	-11.2166
▁痛み	-11.2166
▁怒り	-11.2167
▁建立	-11.2169
▁退学	-11.2169
▁誤差	-11.217
▁親衛隊	-11.2171
▁チェロ	-11.2172
▁アパート	-11.2176
ール	-11.2177
▁北陸	-11.2178
▁中国共産党	-11.2185
▁アイ	-11.2187
▁ノン	-11.2198
腹	-11.2198
▁々	-11.2205
▁インディー	-11.2208
ラブ	-11.2214
▁護	-11.2219
▁閣僚	-11.2224
▁尊敬	-11.2224
▁屈指	-11.2224
▁浮上	-11.2225
▁儀式	-11.2225
▁基底	-11.2226
アメリカ	-11.2229
▁出撃	-11.223
▁移す	-11.223
▁地上波	-11.2232
▁工芸	-11.2233
▁マイアミ	-11.2233
▁トーマス	-11.2234
弾	-11.2236
▁ニュージャージー	-11.224
▁伏	-11.2241
▁モーター	-11.2247
▁偉	-11.2256
則	-11.2264
▁堤	-11.2265
▁虎	-11.227
▁尤	-11.2271
▁練	-11.2271
▁遂げ	-11.2273
▁次郎	-11.2273
▁取り扱	-11.2279
▁ローズ	-11.2282
▁歌謡	-11.2282
▁推奨	-11.2282
▁恐竜	-11.2282
▁焼失	-11.2283
▁ラスト	-11.2283
▁週末	-11.2283
▁中等	-11.2283
▁弥生	-11.2283
▁解明	-11.2284
▁親交	-11.2285
▁コール	-11.2285
▁中尉	-11.2286
▁種族	-11.2287
▁教材	-11.2288
L	-11.2289
▁有利	-11.2289
▁宇宙船	-11.229
▁原産地	-11.2292
▁アイデア	-11.2292
▁パロディ	-11.2292
▁ドメイン	-11.2292
▁無色	-11.2293
骸	-11.2294
糸	-11.2294
▁スプリング	-11.2295
▁タイミング	-11.2295
▁プロフィール	-11.2297
▁プロレスラー	-11.2297
また	-11.2298
▁こなし	-11.2298
▁エンターテインメント	-11.23
▁アメリカンフットボール	-11.2301
▁自生	-11.2301
クラ	-11.2303
▁菓子	-11.2313
積	-11.2313
牧	-11.2321
▁志し	-11.2322
▁薬学	-11.2325
様	-11.2325
バキ	-11.2327
▁中型	-11.2337
▁浅草	-11.2341
章	-11.2341
▁突破	-11.2342
▁還元	-11.2342
▁教皇	-11.2342
▁実兄	-11.2343
▁技能	-11.2343
▁転々	-11.2343
▁極端	-11.2343
▁巡回	-11.2344
▁加える	-11.2344
▁固	-11.2346
▁表わす	-11.2348
▁ラリー	-11.2353
▁ソフトボール	-11.2356
▁正体	-11.236
たる	-11.2367
ミズ	-11.2383
▁堺	-11.2389
▁享	-11.2389
です	-11.2389
▁三井	-11.2396
▁藻	-11.2397
▁子爵	-11.2401
▁貨幣	-11.2401
▁踏襲	-11.2401
▁収蔵	-11.2401
▁声明	-11.2404
▁亜熱帯	-11.2407
▁ナイ	-11.2408
▁スタメン	-11.2411
▁フルート	-11.2411
▁局所	-11.2415
▁マンハッタン	-11.2415
▁そちら	-11.2415
▁ステレオ	-11.2416
▁列島	-11.2421
▁気体	-11.2422
▁大隊	-11.2423
▁成し	-11.2426
▁中華	-11.2426
▁海水	-11.2427
括	-11.243
▁シベリ	-11.2431
白く	-11.2436
▁ターン	-11.2442
▁ランプ	-11.2445
▁ナイト	-11.2451
▁浮	-11.2455
▁中国人	-11.246
▁恐怖	-11.2461
▁敷設	-11.2461
▁写像	-11.2461
▁介護	-11.2463
▁通告	-11.2463
▁農場	-11.2465
▁香り	-11.2465
▁次女	-11.2468
▁洞	-11.2469
▁草本	-11.247
▁西南	-11.247
▁家具	-11.2471
▁ドラゴンズ	-11.2475
▁認可	-11.2475
▁仮面ライダー	-11.2475
▁バンクーバー	-11.2475
やく	-11.2476
▁Windows	-11.2476
ゴン	-11.2478
っと	-11.248
▁自作	-11.2483
▁につれて	-11.2483
▁見方	-11.2484
眠	-11.2485
▁ロイヤル	-11.2492
運	-11.2492
▁やつ	-11.2493
▁飲み	-11.2499
oo	-11.2503
▁神田	-11.2505
▁ああ	-11.2508
▁禅	-11.2509
▁祐	-11.2518
▁加速	-11.2521
▁教諭	-11.2521
▁青春	-11.2522
▁最寄り	-11.2527
▁恐らく	-11.2527
▁キック	-11.2528
▁最南端	-11.2528
▁CG	-11.2529
▁明日	-11.253
償	-11.253
▁放射線	-11.2531
得	-11.2533
備	-11.2534
▁全土	-11.2535
▁発作	-11.2535
▁コマーシャル	-11.2535
▁メリット	-11.2548
▁リア	-11.2553
▁スタンド	-11.2553
▁放つ	-11.2557
▁組み	-11.2558
▁熟	-11.2562
▁迫	-11.2571
▁つか	-11.2572
▁固め	-11.2576
▁辞め	-11.2577
▁母体	-11.2579
▁厩舎	-11.2582
▁悲劇	-11.2582
ンゲン	-11.2582
▁防ぐ	-11.2582
▁快速	-11.2582
▁改築	-11.2582
▁武将	-11.2582
▁環状	-11.2583
▁斜面	-11.2583
▁愛好	-11.2583
▁表題	-11.2584
▁実弟	-11.2584
▁仕方	-11.2584
▁法案	-11.2584
▁右翼	-11.2584
▁あくまで	-11.2584
▁ワル	-11.2585
▁バレー	-11.2587
放送	-11.2587
▁家老	-11.2587
▁メッツ	-11.2588
▁黒褐色	-11.2589
▁どうして	-11.2589
▁等しい	-11.2589
▁著しく	-11.259
▁エッセイ	-11.2591
▁いろいろ	-11.2592
▁シルバー	-11.2592
▁たまたま	-11.2594
▁MS	-11.2594
▁まさに	-11.2594
常	-11.2595
薩	-11.2595
▁ベストナイン	-11.2596
▁作り方	-11.2598
▁バスターミナル	-11.2598
▁飼っ	-11.2602
づけ	-11.2603
▁バル	-11.2611
▁ヶ	-11.2615
▁中盤	-11.2618
▁合戦	-11.2627
▁未定	-11.2628
▁班	-11.2636
▁桑	-11.2637
▁泥	-11.2639
▁フッ	-11.2641
夜	-11.2642
▁計測	-11.2643
▁指令	-11.2643
▁予報	-11.2643
▁統制	-11.2644
▁住所	-11.2644
▁乗務	-11.2644
▁入れ替え	-11.2645
▁多彩	-11.2646
▁ブドウ	-11.2649
だ	-11.2652
▁遅い	-11.2652
生物	-11.2653
▁ボクサー	-11.2653
▁イースト	-11.2653
憩	-11.2657
清	-11.2657
▁スケジュール	-11.2657
▁サブタイトル	-11.2657
▁袋	-11.2662
▁新型	-11.2663
時点	-11.2665
▁ダ	-11.2668
▁スパイ	-11.2669
▁明け	-11.2674
▁ライオン	-11.2674
▁同等	-11.2677
▁雅	-11.2678
▁小山	-11.2684
程	-11.2692
▁とっ	-11.2695
▁レール	-11.2696
e	-11.2698
▁牽引	-11.2704
▁舗装	-11.2704
▁喜劇	-11.2704
▁連敗	-11.2705
▁病死	-11.2706
▁出資	-11.2706
ールズ	-11.2707
▁教官	-11.2709
▁アプリ	-11.271
▁世田谷	-11.271
▁小笠原	-11.2711
▁党員	-11.2711
▁目撃	-11.2711
▁欲しい	-11.2712
▁アダルト	-11.2714
▁重い	-11.2716
▁ナレーター	-11.2716
▁ミャンマー	-11.2716
▁サンプル	-11.2719
3	-11.272
高	-11.2721
▁会津	-11.2721
▁細長	-11.2722
▁有用	-11.2723
▁エン	-11.2725
▁封じ	-11.2762
▁肯定	-11.2766
▁辞退	-11.2766
▁志願	-11.2766
▁鉱業	-11.2768
半球	-11.2768
▁ゴム	-11.2771
▁屋外	-11.2772
▁キャッチ	-11.2776
▁ボルチモア	-11.2778
▁リポーター	-11.2778
チナ	-11.2781
▁那	-11.2785
▁クラーク	-11.2786
広島	-11.2788
▁勤める	-11.2788
▁チェーン	-11.2791
バマ	-11.2791
▁卒	-11.2793
▁他社	-11.2803
▁セリエ	-11.2803
▁祝	-11.2804
▁峰	-11.2807
▁SP	-11.2813
▁啓	-11.2816
▁顕	-11.2816
▁避け	-11.2822
▁就航	-11.2828
▁征服	-11.2828
▁早朝	-11.2829
▁調節	-11.2829
▁不正	-11.283
▁食堂	-11.283
▁アリス	-11.283
▁子女	-11.283
▁波形	-11.2831
▁台北	-11.2831
▁シネマ	-11.2834
▁二塁手	-11.2834
▁高原	-11.2835
▁イエス	-11.2835
▁遅延	-11.2837
▁おおよそ	-11.2839
▁強度	-11.284
▁用水	-11.2841
錐	-11.2843
▁落ち着	-11.2845
ソ	-11.2847
▁ナポリ	-11.2854
▁落ちる	-11.2858
▁バイ	-11.2858
▁見事	-11.2859
▁につき	-11.2867
レス	-11.2868
視	-11.2889
ベル	-11.289
▁請求	-11.289
▁専修	-11.289
▁越冬	-11.2891
▁淡水	-11.2892
▁果物	-11.2892
▁擬	-11.2893
▁廃業	-11.2894
▁買い物	-11.2898
▁裁判官	-11.2898
▁ワイド	-11.2899
▁フー	-11.2899
▁正しく	-11.2899
▁同行	-11.2901
▁楽しめる	-11.2901
▁民家	-11.2902
▁ケンタッキー	-11.2904
▁アトラクション	-11.2906
リヒ	-11.2908
▁アメリカ大陸	-11.2908
訳	-11.2909
▁ストップ	-11.291
▁入試	-11.2915
遊	-11.2915
▁震	-11.2918
▁シフト	-11.2921
▁転	-11.2923
▁塗	-11.2931
▁見な	-11.2935
解	-11.2937
▁慰	-11.2941
替	-11.2949
▁速	-11.2949
▁プライ	-11.2951
▁予告	-11.2953
▁朗読	-11.2953
▁伊豆	-11.2953
▁噴火	-11.2953
▁師匠	-11.2953
▁喜び	-11.2954
銭	-11.2954
▁打席	-11.2955
▁転用	-11.2955
▁同性	-11.2955
▁立教	-11.2957
▁プラハ	-11.296
▁八王子	-11.296
▁拍	-11.2961
▁角度	-11.2962
▁晴	-11.2962
▁ドリーム	-11.2963
▁討	-11.2964
▁パーティ	-11.2965
▁取り組み	-11.2966
▁シンシナティ	-11.2967
▁コラボレーション	-11.297
▁三河	-11.2971
▁ワーク	-11.2982
▁鳴	-11.2982
刑	-11.2984
▁盾	-11.2984
▁鍋	-11.2988
イ	-11.2988
▁尻	-11.2994
▁ラブ	-11.2995
いたま	-11.2996
▁ブリッジ	-11.2997
▁葛	-11.3003
▁鐘	-11.3004
▁音韻	-11.3017
▁倫理	-11.3017
▁保証	-11.3017
▁破産	-11.3017
▁歌い	-11.3017
▁在職	-11.3019
▁出荷	-11.3019
▁独身	-11.3021
▁まいり	-11.3024
▁隠れ	-11.3025
▁みよ	-11.3026
▁範	-11.3027
▁パネル	-11.3028
▁モジュール	-11.3029
▁用品	-11.3029
躍	-11.3036
▁府中	-11.3038
ネス	-11.3039
▁マウス	-11.3045
U	-11.3048
▁PS	-11.3057
わら	-11.3059
▁求	-11.3062
▁だい	-11.3064
▁抽	-11.3067
▁丞	-11.3068
▁征	-11.3074
▁仕	-11.3078
▁玩具	-11.308
▁偶然	-11.308
▁海賊	-11.308
▁隠居	-11.308
▁格納	-11.3081
▁祖先	-11.3081
▁尾羽	-11.3082
▁法廷	-11.3082
▁声楽	-11.3083
▁NTT	-11.3086
▁ソナタ	-11.3086
▁年末	-11.3088
▁直立	-11.3089
▁マジック	-11.309
▁青山学院	-11.309
塚	-11.3091
▁オリックス	-11.3093
▁リクエスト	-11.3093
▁票	-11.3093
▁データベース	-11.3095
▁母語	-11.3097
▁ミラー	-11.3097
EFA	-11.3098
▁執	-11.3099
▁ショット	-11.31
▁隔	-11.3102
▁筒	-11.3106
媒	-11.3109
基	-11.3111
切り	-11.3114
ドル	-11.3136
卒	-11.3138
▁倒産	-11.3145
▁個展	-11.3145
▁洋画	-11.3145
▁略号	-11.3145
▁弾薬	-11.3146
▁志す	-11.3147
▁外務	-11.3149
▁断面	-11.315
▁審	-11.315
▁ノベル	-11.3151
京	-11.3151
断	-11.3153
▁吉本興業	-11.3154
▁リメイク	-11.3154
▁食物	-11.3155
▁取り組む	-11.3155
▁館長	-11.3155
▁ジャマイカ	-11.3157
▁ハンブルク	-11.3157
▁語源	-11.3157
▁きわ	-11.3158
▁開戦	-11.3159
▁春日	-11.3161
▁ホールディングス	-11.3161
▁慣	-11.3165
▁次第	-11.3168
ぎ	-11.3175
▁HP	-11.3176
めて	-11.3179
▁含める	-11.3189
▁NP	-11.3189
▁針	-11.3192
▁同市	-11.3194
▁カメ	-11.32
▁幹線	-11.3201
▁閉じ	-11.3203
▁ドン	-11.3206
域	-11.3206
▁往復	-11.3209
▁演習	-11.3209
▁景観	-11.3209
▁航行	-11.321
▁鹿島	-11.3211
▁敬語	-11.3211
▁兵役	-11.3211
▁置き換え	-11.3212
▁破り	-11.3215
▁に当たる	-11.3215
▁シンプル	-11.3219
▁待ち	-11.322
▁おいしい	-11.3222
▁文節	-11.3222
▁サンクトペテルブルク	-11.3227
▁はるか	-11.3228
▁浅い	-11.3229
▁市川	-11.3229
▁エイ	-11.3238
▁よし	-11.3244
▁鎖	-11.3246
▁ニーズ	-11.3246
▁植え	-11.3247
▁フィルター	-11.3252
▁萩	-11.3261
債	-11.3262
▁町長	-11.3263
▁プレート	-11.3264
▁指し	-11.3272
▁拘束	-11.3274
▁未知	-11.3274
▁後輩	-11.3274
▁賛成	-11.3274
▁頂点	-11.3275
▁土佐	-11.3275
椅子	-11.3281
▁行える	-11.3283
▁リーチ	-11.3283
▁スイッチ	-11.3284
▁リンカーン	-11.3286
▁ミステリー	-11.3287
▁フォーマット	-11.3288
▁母校	-11.3289
策	-11.3289
▁ミドル	-11.329
▁水系	-11.3293
▁芸能人	-11.3294
▁飾る	-11.3296
▁プレーヤー	-11.3296
▁ビーム	-11.33
▁行け	-11.3302
▁死体	-11.3315
▁乗る	-11.332
▁爪	-11.3327
▁諱	-11.3327
▁短期	-11.3335
瀬	-11.3337
▁帰投	-11.3339
▁笑	-11.3339
▁女神	-11.3341
らく	-11.3341
▁リトル	-11.3346
▁リンゴ	-11.3346
▁おんなじ	-11.3349
▁百貨店	-11.335
然	-11.3351
肩	-11.3352
▁由	-11.3352
▁ヴェネツィア	-11.3353
▁キリスト教徒	-11.3353
▁海峡	-11.3355
▁位置付け	-11.3364
▁ファー	-11.3365
阪	-11.3366
▁仕える	-11.337
▁バルト	-11.3372
工	-11.3374
▁歩道	-11.3374
▁統	-11.3377
▁和田	-11.3379
▁勝者	-11.3387
▁暫	-11.3389
▁北端	-11.3396
▁開き	-11.3402
▁聞こえ	-11.3405
▁警戒	-11.3405
▁功労	-11.3405
▁遊ぶ	-11.3405
▁牛乳	-11.3405
▁楽天	-11.3405
▁修飾	-11.3406
▁安価	-11.3407
▁発信	-11.3408
▁落下	-11.3408
▁打点	-11.3408
▁木製	-11.3409
▁狭く	-11.3412
▁越後	-11.3412
▁ムービー	-11.3415
▁ポスター	-11.3415
▁行き来	-11.3415
▁帯びる	-11.3417
▁蛇	-11.342
▁ウィリアムズ	-11.3421
▁繋がる	-11.3422
棺	-11.3424
▁飯	-11.343
▁中京	-11.343
▁最中	-11.3436
▁暑	-11.3441
▁ラップ	-11.3444
▁祈	-11.3451
▁ホン	-11.3455
▁鋸	-11.3459
▁神宮	-11.3459
▁頑張	-11.3462
▁語学	-11.3466
▁是非	-11.3471
▁農耕	-11.3471
▁騒音	-11.3471
▁鎮圧	-11.3471
▁盆地	-11.3472
▁旅館	-11.3473
▁条例	-11.3473
▁ペース	-11.3473
▁法令	-11.3474
▁真実	-11.3474
敵	-11.3477
▁トリノ	-11.3477
▁飛び	-11.3478
▁ホスト	-11.3478
▁先住民	-11.3478
▁ルネサンス	-11.3483
▁パイオニア	-11.3483
▁CP	-11.3485
▁トランス	-11.3487
▁チャンピオンシップ	-11.3488
▁日光	-11.349
▁ピーター	-11.3491
酵	-11.3492
▁出自	-11.3495
E	-11.3496
レンジャー	-11.3498
▁ファ	-11.3502
モン	-11.3504
索	-11.3504
▁中川	-11.3505
困	-11.3514
▁他人	-11.3516
▁いや	-11.3522
▁広ま	-11.3525
▁遠い	-11.3527
フリー	-11.3535
▁墜落	-11.3538
▁逝去	-11.3538
▁依然	-11.3538
▁くん	-11.3539
▁斎藤	-11.3539
▁親友	-11.354
▁常務	-11.354
▁血管	-11.354
▁校区	-11.3541
▁原型	-11.3542
▁みどり	-11.3544
▁マンガ	-11.3544
▁ムスリム	-11.3548
▁富士山	-11.3548
▁地方裁判所	-11.3551
▁ラインナップ	-11.3552
NA	-11.3554
▁各駅	-11.3555
▁シンガーソングライター	-11.3556
ベート	-11.3558
パイレーツ	-11.3558
肘	-11.3558
ニウム	-11.3558
▁ラッシュ	-11.3559
▁岳	-11.356
くに	-11.3568
▁アップデート	-11.3578
▁抜け	-11.358
▁魂	-11.3583
▁慎	-11.3602
▁マリー	-11.3602
▁湘南	-11.3605
という	-11.3605
▁解答	-11.3605
▁容量	-11.3606
▁反論	-11.3609
▁味方	-11.3609
▁異例	-11.3609
▁御存じ	-11.3611
▁マニラ	-11.3611
▁祀	-11.3613
▁貧しい	-11.3614
▁テイラー	-11.3615
▁グレード	-11.3615
▁飾り	-11.3616
▁柔らかい	-11.3618
▁大映	-11.362
▁ミュージックビデオ	-11.3622
▁側室	-11.3624
ナーズ	-11.3626
▁臭	-11.3631
▁ストーン	-11.3632
奏	-11.3633
▁月	-11.3633
▁人組	-11.3637
▁費や	-11.3638
▁醸	-11.3638
▁苦労	-11.3641
▁公国	-11.3653
▁×	-11.366
▁請	-11.3662
▁宏	-11.3665
▁吉野	-11.3669
▁扁平	-11.3672
▁遭遇	-11.3672
▁穀物	-11.3673
▁永遠	-11.3673
▁修道	-11.3673
▁レバ	-11.3675
▁住人	-11.3676
▁切り替え	-11.3676
▁大野	-11.3677
▁四肢	-11.3678
▁たばこ	-11.3679
▁センチ	-11.3679
▁カテゴリ	-11.3679
ルコ	-11.3681
ェール	-11.3682
▁西鉄	-11.3682
羽	-11.3683
▁溝	-11.3683
▁捜	-11.3684
▁発車	-11.3684
▁乗せ	-11.3684
▁正義	-11.3684
▁エンジニア	-11.3685
▁エチオピア	-11.3685
▁メルボルン	-11.3685
▁サラリーマン	-11.3687
▁中佐	-11.3687
▁掛かる	-11.3687
▁掲げる	-11.369
煙	-11.3693
▁巻き込	-11.3695
▁攻	-11.37
謝	-11.3704
▁舞	-11.3716
▁繰り返	-11.3725
竹	-11.3726
▁猛	-11.3736
▁成り立	-11.3737
▁消失	-11.3741
▁収益	-11.3741
▁抗争	-11.3741
▁飲む	-11.3741
▁銀座	-11.3741
▁最悪	-11.3742
▁有無	-11.3742
▁適合	-11.3744
▁駐在	-11.3744
▁なれ	-11.3744
▁男児	-11.3745
▁対馬	-11.3745
▁回航	-11.3745
▁飲料	-11.3746
▁知り	-11.3748
▁野村	-11.3749
▁ジェット	-11.375
▁パチンコ	-11.375
▁トレーナー	-11.3753
▁毎日新聞	-11.3754
▁プエルトリコ	-11.3755
▁儲け	-11.376
▁にまつわる	-11.3762
▁ケーキ	-11.3763
▁又	-11.3776
▁従っ	-11.3783
▁点数	-11.379
▁敗れる	-11.3795
▁本質	-11.3801
▁民謡	-11.3809
▁鳥居	-11.3809
▁寿司	-11.3809
▁専業	-11.381
▁農林	-11.381
草	-11.3811
▁失点	-11.3814
▁国民党	-11.3819
▁ニコニコ	-11.3819
換	-11.3821
▁そうすると	-11.3822
▁カンパニー	-11.3827
▁スコット	-11.3838
学芸	-11.3838
▁獲	-11.3847
▁終わら	-11.3847
▁送り	-11.3851
▁慕	-11.3863
▁徹	-11.3865
▁陶	-11.3865
び	-11.3867
▁下ろし	-11.3868
▁中立	-11.387
▁高地	-11.3873
▁兆	-11.3878
三	-11.3878
▁壊滅	-11.3878
▁聴取	-11.3878
▁先祖	-11.3878
▁雑食	-11.3878
▁採集	-11.3878
▁現われ	-11.3879
▁測	-11.3881
▁山林	-11.3883
▁島根	-11.3884
▁部員	-11.3884
▁サンゴ	-11.3885
▁難しく	-11.3885
▁日活	-11.3885
▁ダービー	-11.3888
▁山城	-11.3889
▁無関係	-11.389
▁ペンネーム	-11.389
▁関わり	-11.3891
▁パシフィック	-11.3892
▁アルジェリア	-11.3892
▁ロードレース	-11.3892
▁パレード	-11.3893
学部	-11.3895
鉱	-11.3901
▁台地	-11.3905
▁ぞ	-11.3907
▁ヴェル	-11.3911
▁号す	-11.3915
▁年金	-11.3928
▁サイン	-11.3929
▁取扱	-11.3934
跡	-11.3934
▁零	-11.3935
▁造り	-11.3936
▁認める	-11.3946
▁娯楽	-11.3947
▁直轄	-11.3947
▁転勤	-11.3947
イラー	-11.3947
▁告白	-11.3947
▁司祭	-11.3948
▁貫通	-11.3948
▁サクラ	-11.3954
迎	-11.3956
▁国勢調査	-11.3957
▁ポップ	-11.3958
▁観音	-11.396
▁内装	-11.3961
▁サウジアラビア	-11.3963
▁アイスホッケー	-11.3963
▁高める	-11.3963
▁超人	-11.3963
▁ニ	-11.3964
▁高崎	-11.3967
▁替え	-11.3969
▁失い	-11.397
▁ブリ	-11.3972
眼	-11.3973
▁振る	-11.3973
▁前橋	-11.3977
▁まち	-11.3987
入れ	-11.399
▁膨	-11.3991
▁うーん	-11.3994
辰	-11.3995
▁想	-11.4003
▁匹	-11.4005
▁鈴	-11.4009
▁念	-11.4012
▁帯び	-11.4012
庫	-11.4017
▁挨拶	-11.4017
▁示唆	-11.4017
▁稼働	-11.4017
▁行使	-11.4018
▁霊園	-11.4018
▁尺度	-11.4018
▁城壁	-11.402
▁尖	-11.402
▁出題	-11.4021
▁サイクル	-11.4022
▁単発	-11.4022
▁づくり	-11.4023
▁集英社	-11.4023
▁TKO	-11.4023
▁コロナ	-11.4024
▁ニッポン	-11.4027
▁号機	-11.4027
▁ダブリン	-11.4027
▁ジャン	-11.4029
▁ブロードウェイ	-11.4033
▁アドベンチャー	-11.4033
▁お客	-11.4035
▁MF	-11.4036
▁研	-11.4039
シャワ	-11.404
▁豊田	-11.4041
▁レッズ	-11.4046
ット	-11.4047
▁上限	-11.4052
膜	-11.4056
▁復	-11.4059
鋼	-11.4061
銃	-11.4064
これ	-11.4072
▁錦	-11.4075
▁マーケット	-11.4078
▁おか	-11.4079
府立	-11.408
▁かた	-11.4081
▁勘	-11.4086
▁睡眠	-11.4088
▁べ	-11.4088
▁登記	-11.4088
▁切断	-11.4088
▁探す	-11.4088
▁ビタ	-11.4089
▁フロア	-11.4092
▁円盤	-11.4092
▁見た目	-11.4094
▁定員	-11.4094
▁ロマン	-11.4096
▁再発	-11.4097
▁出入り	-11.4098
エフ	-11.4099
▁スリランカ	-11.41
▁ギャラリー	-11.41
▁アカウント	-11.41
▁ライブハウス	-11.4102
▁ポートランド	-11.4102
▁生家	-11.411
ジョン	-11.411
▁ジェイ	-11.4111
▁CS	-11.4114
ホール	-11.4115
▁倒し	-11.4115
▁スト	-11.4117
▁家屋	-11.4119
▁山下	-11.4122
▁率いる	-11.4131
▁言	-11.4132
▁奨学	-11.4143
▁淳	-11.4145
▁徐	-11.4145
▁勾	-11.4146
▁昭	-11.4147
▁なさい	-11.4148
▁相模	-11.4157
▁返還	-11.4159
▁運休	-11.4159
▁過剰	-11.4159
▁入浴	-11.4159
▁脇役	-11.4159
▁養殖	-11.4159
▁志望	-11.4159
▁部活	-11.4162
▁南京	-11.4164
▁コック	-11.4164
▁正常	-11.4165
▁代名詞	-11.4166
▁隣り	-11.4166
▁生理学	-11.4166
▁バンコク	-11.4168
▁彦	-11.4169
▁持ち込	-11.417
同	-11.4171
▁ラスベガス	-11.4171
▁バッテリー	-11.4171
▁伸ばし	-11.4171
▁院長	-11.4173
▁リサイクル	-11.4176
▁黄色い	-11.4177
▁まずは	-11.4181
▁本館	-11.4194
▁塁	-11.4194
▁北口	-11.4195
先	-11.4198
▁小売	-11.4201
▁守り	-11.4202
ッピ	-11.4207
賛	-11.4218
▁日時	-11.4222
▁アンダー	-11.4223
▁僧	-11.4225
エト	-11.4226
▁監修	-11.423
▁暴動	-11.423
▁準拠	-11.423
▁伴奏	-11.423
▁封入	-11.4231
▁筆頭	-11.4231
▁介入	-11.4231
▁手続	-11.4231
▁無効	-11.4232
▁桁	-11.4233
初	-11.4235
▁倶楽部	-11.4236
▁夏休み	-11.4237
▁マルタ	-11.4237
▁表彰台	-11.4237
▁そもそも	-11.424
▁モバイル	-11.424
▁ネパール	-11.424
▁アンテナ	-11.424
▁コンテナ	-11.424
▁野外	-11.4241
▁ウィルソン	-11.4242
▁スライダー	-11.4242
▁スロベニア	-11.4243
▁パラメータ	-11.4244
▁ニュータウン	-11.4245
▁ミルウォーキー	-11.4245
▁センチメートル	-11.4245
▁チェンジ	-11.4246
▁熱中	-11.4247
ボン	-11.4248
▁ナイフ	-11.4253
▁いま	-11.4254
番	-11.4255
▁南口	-11.4256
▁悩ま	-11.4257
▁初日	-11.426
む	-11.4261
▁t	-11.4269
雷	-11.4274
▁時に	-11.4275
動的	-11.428
▁橘	-11.4281
▁幻	-11.4289
▁α	-11.429
▁薫	-11.429
▁有る	-11.4291
▁トライ	-11.4301
▁虐待	-11.4302
▁決断	-11.4302
▁親戚	-11.4302
▁緩和	-11.4302
▁校歌	-11.4303
▁改宗	-11.4303
▁頂上	-11.4304
▁整数	-11.4305
▁説得	-11.4305
▁火星	-11.4305
▁調達	-11.4306
▁腫瘍	-11.4306
▁連動	-11.4307
▁ポルノ	-11.4308
▁内蔵	-11.4308
▁トミー	-11.4308
▁免れ	-11.4309
▁島津	-11.431
▁ブライアン	-11.4313
▁ガール	-11.4314
▁ウォーター	-11.4314
▁社格	-11.4317
▁反面	-11.432
▁出品	-11.4321
▁簿	-11.4326
▁はじめて	-11.4332
▁うた	-11.4332
▁歩き	-11.4334
▁買い	-11.4336
▁墨	-11.434
▁揃	-11.4343
句	-11.4355
ミー	-11.436
▁らしく	-11.4361
▁見舞	-11.4361
▁山中	-11.4367
g	-11.4367
▁公爵	-11.4374
▁孵化	-11.4374
▁抜擢	-11.4374
▁告知	-11.4374
▁改訂	-11.4374
▁警官	-11.4374
▁動向	-11.4375
▁降板	-11.4375
▁紅葉	-11.4375
▁肉食	-11.4376
▁地獄	-11.4378
▁救出	-11.4378
▁通訳	-11.4378
▁好物	-11.4379
▁桐	-11.4379
▁速く	-11.438
▁サラ	-11.438
▁タバコ	-11.438
▁明るく	-11.4381
▁失業	-11.4383
▁ウルトラ	-11.4384
▁曹	-11.4385
▁我が	-11.4386
▁アイス	-11.4386
▁ステータス	-11.4387
▁避ける	-11.4388
▁におきまして	-11.439
▁フランクフルト	-11.439
▁地盤	-11.4391
▁ラジオドラマ	-11.4391
▁自立	-11.4391
▁赤軍	-11.4392
久保	-11.4393
▁クイーン	-11.4393
▁公社	-11.4394
剖	-11.44
穫	-11.44
▁炉	-11.4408
▁ビジョン	-11.4408
▁大連	-11.4412
▁洗	-11.4414
▁ルーム	-11.4425
▁支払	-11.4431
▁水面	-11.4438
▁ポ	-11.4439
▁ライオンズ	-11.4439
▁告げ	-11.4441
▁迷	-11.4444
▁戯曲	-11.4447
▁フジ	-11.4447
▁奪取	-11.4447
▁専務	-11.4448
▁飛ぶ	-11.4448
▁利根	-11.4448
▁井	-11.4449
▁威力	-11.4449
▁京成	-11.4449
▁電撃	-11.4449
▁陣営	-11.445
▁特番	-11.445
▁流派	-11.445
▁舎	-11.4452
▁多項式	-11.4453
▁英会話	-11.4454
▁山陽	-11.4455
▁折	-11.4456
▁習う	-11.4456
▁コムーネ	-11.4457
▁カウント	-11.4458
▁オートバイ	-11.446
▁アルバニア	-11.446
▁大公	-11.4461
▁ヴィクトリア	-11.4461
▁インディアナ	-11.4461
荷	-11.4464
▁笠	-11.4481
▁会合	-11.4482
▁シャ	-11.4512
▁承	-11.4512
▁揺れ	-11.4515
▁浴び	-11.452
市	-11.4521
▁拡散	-11.4521
▁談話	-11.4521
▁併合	-11.4521
▁斗	-11.4522
▁咲く	-11.4523
▁常連	-11.4524
▁武士	-11.4524
▁LED	-11.4527
▁パナマ	-11.4527
▁滑らか	-11.4527
▁リボン	-11.4527
▁先駆け	-11.4528
▁お菓子	-11.4528
▁サード	-11.4529
▁バブル	-11.453
▁脊椎動物	-11.4531
▁オート	-11.4535
▁スタンダード	-11.4535
▁ナイジェリア	-11.4535
nd	-11.4541
FC	-11.4543
▁さら	-11.4547
▁時には	-11.4548
倍	-11.4548
▁スピーカー	-11.455
惑	-11.4552
▁出家	-11.4552
▁売り	-11.4558
▁ウィス	-11.4561
上げ	-11.4562
殿	-11.4563
もの	-11.4563
▁椎	-11.4567
▁学期	-11.4571
欲	-11.458
▁四季	-11.458
▁智	-11.4583
▁エル	-11.4587
▁生地	-11.4589
尿	-11.4594
▁本拠	-11.4594
水浴	-11.4595
▁排除	-11.4595
▁算出	-11.4595
▁視察	-11.4596
▁随時	-11.4597
▁サーバ	-11.4599
▁掃	-11.46
▁喧嘩	-11.4601
▁ギャグ	-11.4601
▁レシピ	-11.4601
▁増やす	-11.4601
▁ケルン	-11.4601
▁枠組み	-11.4601
▁こっち	-11.4601
▁ジョー	-11.4603
▁トランプ	-11.4605
▁私生活	-11.4607
▁エディンバラ	-11.4609
▁スノーボード	-11.4609
▁悲	-11.4609
▁キックボクシング	-11.4611
▁ビートルズ	-11.4613
▁ケン	-11.4617
▁臣	-11.4618
夷	-11.4623
▁Q	-11.4623
▁初心	-11.463
▁発動	-11.4638
▁他界	-11.464
▁部下	-11.4641
パウロ	-11.4646
▁イースタ	-11.465
オブ	-11.465
仏	-11.4651
▁赴	-11.4654
否	-11.4655
▁図る	-11.4662
▁妖怪	-11.4669
▁配慮	-11.4669
▁疎開	-11.467
▁合宿	-11.467
▁革新	-11.467
▁捕獲	-11.467
▁津波	-11.467
警	-11.467
▁交際	-11.4671
▁宗派	-11.4672
▁電圧	-11.4672
▁製鉄	-11.4673
▁力士	-11.4675
▁開局	-11.4676
▁一気に	-11.4676
▁ふたり	-11.4677
▁アリーナ	-11.4679
▁セミナー	-11.4679
▁引き分け	-11.468
▁ナトリウム	-11.4682
▁あら	-11.4688
▁粉	-11.4689
▁GM	-11.4692
▁風呂	-11.4692
▁儀	-11.4698
▁往	-11.4699
ども	-11.4701
▁符	-11.4705
察	-11.4709
▁掛ける	-11.4719
▁五つ	-11.472
▁フード	-11.4724
▁メリー	-11.4725
▁チャン	-11.4728
▁応	-11.4733
▁欄	-11.4736
▁カル	-11.4737
▁抹消	-11.4745
▁渋滞	-11.4745
▁橋梁	-11.4745
▁激減	-11.4745
▁進展	-11.4745
▁注文	-11.4746
▁荷物	-11.4746
▁保全	-11.4746
▁発覚	-11.4747
▁残念	-11.475
▁男の子	-11.4751
▁緩やか	-11.4751
▁庄	-11.4753
▁ドクター	-11.4755
▁すいません	-11.4757
▁ギタリスト	-11.4757
▁ドラえもん	-11.4757
▁いきなり	-11.4757
アゼ	-11.4759
▁チョコレート	-11.4759
▁トヨタ自動車	-11.4759
▁隊長	-11.4759
▁東急	-11.476
▁城主	-11.4762
▁ごみ	-11.4762
▁妃	-11.4765
▁長岡	-11.4766
▁本堂	-11.4766
▁長期間	-11.4768
▁又は	-11.4768
▁調べる	-11.4768
▁選び	-11.4769
x	-11.4769
▁ライダー	-11.4771
▁帯域	-11.4771
▁ローン	-11.4776
透	-11.4786
▁おお	-11.4793
▁トリ	-11.4794
ばら	-11.4795
d	-11.4797
▁掛	-11.4807
▁鞘	-11.4808
▁困	-11.4812
▁希	-11.4812
▁拳	-11.4816
滅	-11.4817
体育	-11.4817
抵	-11.4817
エージェント	-11.4819
▁ちょ	-11.4819
▁商工	-11.4821
▁参事	-11.4822
▁器具	-11.4822
▁狩り	-11.4822
▁寄生	-11.4822
▁明石	-11.4823
▁車庫	-11.4824
よう	-11.4824
音楽	-11.4825
▁感動	-11.4825
▁取り壊	-11.4827
▁不十分	-11.4827
▁天文台	-11.4827
▁特権	-11.4827
▁相談役	-11.4827
▁吉本	-11.4829
▁主観	-11.483
▁年末年始	-11.483
▁テナント	-11.483
▁休み	-11.4832
▁低木	-11.4833
帰り	-11.4834
▁バドミントン	-11.4834
▁セクション	-11.4835
▁故に	-11.4836
▁支払い	-11.4841
らび	-11.4844
審	-11.4851
▁少なか	-11.4855
ラス	-11.4855
▁受け付け	-11.4864
▁珍	-11.4866
▁カート	-11.4872
▁べく	-11.4872
▁昨年	-11.4886
ンキ	-11.4888
▁怒	-11.4888
都	-11.4894
▁掃除	-11.4897
▁買う	-11.4897
▁増殖	-11.4897
▁台詞	-11.4898
▁容器	-11.4899
▁反撃	-11.4899
▁武術	-11.49
▁不在	-11.4902
▁ジェフ	-11.4903
▁スピン	-11.4903
▁国歌	-11.4905
▁間違	-11.4905
▁細かく	-11.4905
▁リフト	-11.4905
▁右岸	-11.4907
▁カウンター	-11.4909
▁ポピュラー	-11.4909
▁婦人	-11.4912
▁ポニーキャニオン	-11.4913
▁馬場	-11.4925
▁付き合い	-11.4939
亜	-11.4942
▁イラ	-11.4961
▁趣	-11.4961
▁蛍	-11.4961
▁フィクション	-11.4963
▁畜	-11.4967
▁喪失	-11.4974
▁逸話	-11.4974
▁常緑	-11.4974
▁受容	-11.4974
▁灯台	-11.4974
威	-11.4975
▁旅団	-11.4975
セラー	-11.4976
▁薄く	-11.4976
▁休業	-11.4977
▁事象	-11.4977
▁一行	-11.4979
▁仙	-11.4979
▁アマ	-11.498
▁ダート	-11.498
▁コラム	-11.498
▁メン	-11.4981
▁乗り場	-11.4982
▁一生懸命	-11.4983
▁アーサー	-11.4984
▁オックスフォード	-11.4984
▁なるべく	-11.4986
▁書類	-11.4987
▁眼鏡	-11.4988
▁リアルタイム	-11.4988
▁バンク	-11.4989
▁対数	-11.499
n	-11.4991
▁在位	-11.4994
那	-11.4998
カット	-11.4998
▁冊	-11.5002
▁維新	-11.5005
ロイヤルズ	-11.5009
▁溶け	-11.501
▁過ぎる	-11.5013
▁弥	-11.5018
洋	-11.5019
誉	-11.5032
▁胤	-11.5039
▁トー	-11.5049
▁尽く	-11.505
▁把握	-11.5051
▁工廠	-11.5051
▁測量	-11.5052
▁最強	-11.5052
▁築城	-11.5052
▁天文	-11.5055
▁社団	-11.5056
▁パイプ	-11.5057
▁朝日新聞	-11.5061
▁下がる	-11.5061
▁高価	-11.5061
▁話し言葉	-11.5061
▁スロット	-11.5062
▁フィリップ	-11.5062
▁ヤマト	-11.5064
▁ポテンシャル	-11.5065
▁カップリング	-11.5066
▁アナロ	-11.5066
▁エージェンシー	-11.5066
▁シェイクスピア	-11.5066
▁広島東洋カープ	-11.5066
▁シード	-11.5067
ート	-11.5068
▁スクリーン	-11.5071
静	-11.5072
▁解く	-11.5072
▁水分	-11.5073
▁エンド	-11.5075
▁言い方	-11.5082
崖	-11.5082
▁サム	-11.5086
▁刈	-11.5089
▁いじめ	-11.509
▁カブ	-11.5093
▁閉	-11.5093
▁松田	-11.5097
▁威	-11.5106
件	-11.5117
智	-11.5121
▁彗星	-11.5129
▁添加	-11.5129
▁舞鶴	-11.5129
▁連鎖	-11.5129
▁殺陣	-11.5129
▁侍従	-11.513
▁寄稿	-11.513
▁氷河	-11.513
▁服装	-11.513
タウン	-11.513
▁回る	-11.513
▁卓	-11.5132
▁婦	-11.5133
▁調音	-11.5134
▁類型	-11.5134
▁遊歩道	-11.5135
▁軍艦	-11.5138
▁カルチャー	-11.5142
▁集まり	-11.5142
▁女学校	-11.5143
▁見直し	-11.5143
▁ウルトラマン	-11.5144
ネ	-11.5144
▁エスカレーター	-11.5145
▁シューティング	-11.5145
▁役場	-11.515
▁平原	-11.5153
▁塚	-11.5155
▁浪	-11.5156
▁オーク	-11.5159
下げ	-11.5159
詣	-11.5161
▁レビュー	-11.5163
香	-11.5165
▁荷	-11.5165
▁大谷	-11.5167
通	-11.5172
スキー	-11.5175
協同	-11.5176
ストロ	-11.5187
▁ホークス	-11.5187
列	-11.5192
▁見出	-11.5205
▁好ま	-11.5208
▁略奪	-11.5208
▁未満	-11.5209
▁断層	-11.5209
▁計量	-11.5211
▁キン	-11.5211
▁改編	-11.5212
▁小松	-11.5214
▁城下町	-11.5215
▁格子	-11.5215
▁格好	-11.5215
▁FIFA	-11.5218
▁ゆう	-11.5218
▁ピンク色	-11.5219
▁関西学院	-11.522
ヨン	-11.522
▁マケドニア	-11.522
▁無所属	-11.5222
▁オルガン	-11.5224
▁ヘルシ	-11.5227
▁余り	-11.5227
▁痛	-11.5228
▁後藤	-11.5232
▁ステッカー	-11.5232
銀	-11.5238
▁作動	-11.5238
大震災	-11.5239
▁フォーム	-11.5246
内外	-11.5247
主義	-11.5247
髪	-11.525
▁召	-11.525
対	-11.5254
▁東山	-11.5268
▁筑	-11.5271
▁バーン	-11.5272
▁疲れ	-11.5274
▁キット	-11.5275
▁労	-11.5276
ログ	-11.5286
▁廃棄	-11.5287
▁懲役	-11.5287
▁講習	-11.5288
▁待機	-11.5288
▁阿波	-11.5288
▁供用	-11.5289
▁空母	-11.5291
▁繰り広げ	-11.5291
▁クモ	-11.5292
▁驚く	-11.5292
▁難民	-11.5293
▁脂肪	-11.5293
▁届く	-11.5293
▁キノコ	-11.5293
▁直営	-11.5294
▁ケニア	-11.5294
バー	-11.5295
▁クリス	-11.5297
▁こん	-11.5297
▁リタイア	-11.5297
▁乗り換え	-11.5297
▁お母さん	-11.5297
▁形態素	-11.5297
▁マイクロ	-11.5298
▁民法	-11.5299
▁さかのぼる	-11.53
▁オンタリオ	-11.53
▁やってくる	-11.53
▁トランペット	-11.5301
▁ニックネーム	-11.5301
▁グレー	-11.5301
ホーム	-11.5303
▁ストックホルム	-11.5303
▁国分寺	-11.5306
神	-11.5309
▁降る	-11.531
時代	-11.5312
▁おこな	-11.5316
X	-11.5319
▁後援	-11.5324
▁移り住	-11.5332
▁太い	-11.5332
▁大河	-11.5337
▁につれ	-11.534
▁スケール	-11.5341
▁インディ	-11.5343
▁浩	-11.5353
▁イカ	-11.5355
▁本文	-11.5355
▁激	-11.5357
▁パルス	-11.5357
▁石田	-11.5358
砂	-11.536
▁阻	-11.5361
セン	-11.5366
▁囃子	-11.5367
▁売買	-11.5367
▁太鼓	-11.5367
▁押す	-11.5367
▁商標	-11.5367
▁復旧	-11.5367
▁原始	-11.5368
▁誤解	-11.5368
▁脱落	-11.5368
▁奇跡	-11.5368
▁薬剤	-11.5368
▁検事	-11.5368
▁綴り	-11.5369
▁神殿	-11.5369
▁転戦	-11.5369
▁忍	-11.537
▁門下	-11.5372
▁三国志	-11.5373
▁中納言	-11.5373
▁メトロ	-11.5373
▁不可欠	-11.5373
▁クレイ	-11.5374
▁願い	-11.5374
▁職場	-11.5374
▁コム	-11.5375
▁停車駅	-11.5375
▁セールス	-11.5377
▁がち	-11.5377
▁カリブ海	-11.5377
▁コンパクト	-11.538
▁クリケット	-11.538
▁コンサルタント	-11.5383
▁広東	-11.5383
▁すぎる	-11.5383
ウェア	-11.5384
▁降下	-11.5384
▁アクティブ	-11.5386
▁CF	-11.5391
▁モーラ	-11.5394
庭	-11.5397
▁領事館	-11.5399
▁新曲	-11.54
▁カリキュラム	-11.5401
泌	-11.5401
賠	-11.5401
赦	-11.5401
応	-11.5404
▁絞	-11.5404
▁チーズ	-11.5407
リカ	-11.5408
▁前進	-11.5409
▁軽い	-11.5421
▁日立	-11.5424
▁恭	-11.5434
▁貯	-11.5435
▁筆	-11.5435
▁囚	-11.5435
▁槍	-11.5442
壇	-11.5443
▁及ぼ	-11.5447
そ	-11.5447
▁稽古	-11.5448
▁閾値	-11.5448
▁堆積	-11.5448
▁追跡	-11.5449
▁被災	-11.5449
▁宝石	-11.5449
▁列記	-11.5449
▁楽譜	-11.5451
▁暫く	-11.5452
剣	-11.5454
▁入所	-11.5454
▁辞典	-11.5454
▁船橋	-11.5455
態	-11.5456
▁グルジア	-11.5458
▁ファイト	-11.5458
張り	-11.5461
▁どうも	-11.5462
▁ロックバンド	-11.5463
▁サル	-11.5466
▁著しい	-11.5466
▁ストレート	-11.5467
▁ABC	-11.5467
▁きっと	-11.5469
▁支える	-11.547
▁ポーズ	-11.5471
▁チップ	-11.5473
カントリー	-11.5484
文字	-11.5491
▁一説	-11.5492
▁切る	-11.55
歌劇	-11.5501
▁慣れ	-11.5504
▁チェス	-11.5521
▁垂れ	-11.5524
▁也	-11.5529
絵	-11.5529
▁破綻	-11.5529
▁突如	-11.5529
▁田畑	-11.5529
▁通商	-11.553
▁札所	-11.553
▁無償	-11.5532
▁砲兵	-11.5532
症	-11.5532
▁中堅	-11.5533
▁実父	-11.5534
など	-11.5537
経済	-11.5537
▁導く	-11.5538
▁クラフト	-11.5539
▁ウイング	-11.5539
▁ウエスト	-11.5539
▁チームメイト	-11.5543
▁動かす	-11.5544
キア	-11.5545
▁領地	-11.5548
▁通じる	-11.555
▁左手	-11.5551
▁芽	-11.5551
▁ノイズ	-11.5556
選	-11.5558
▁ミッドフィールダー	-11.5561
▁そっ	-11.5563
▁本多	-11.5563
▁マネージメント	-11.5564
▁バリア	-11.5566
▁帳	-11.5568
▁郭	-11.5575
サ	-11.5575
はや	-11.5583
▁与	-11.5584
▁それなり	-11.5586
▁誇	-11.559
範囲	-11.559
▁UF	-11.559
リーズ	-11.5595
とも	-11.5601
寒	-11.5605
▁クリ	-11.5609
▁獅子	-11.5611
▁休刊	-11.5611
▁著述	-11.5611
▁橙色	-11.5611
▁炭酸	-11.5611
▁元帥	-11.5611
▁投球	-11.5612
▁乗組	-11.5612
▁加算	-11.5612
▁淡路	-11.5612
境	-11.5613
▁早世	-11.5613
▁系図	-11.5616
▁気分	-11.5617
▁メロディ	-11.5618
▁西海岸	-11.5619
▁ゴシック	-11.5621
▁望ましい	-11.5621
▁論じ	-11.5622
▁カメラマン	-11.5625
▁闇	-11.5627
過	-11.5632
▁武道	-11.5632
▁早くから	-11.5635
談	-11.5636
▁役人	-11.5638
▁没年	-11.5641
▁もたら	-11.5645
前線	-11.5646
▁明瞭	-11.5652
▁献	-11.5654
▁アッ	-11.5659
▁寒い	-11.5662
▁実体	-11.5664
▁アラ	-11.5671
▁狼	-11.5681
▁DS	-11.5687
▁生き残	-11.5691
ザー	-11.5692
▁末裔	-11.5694
▁荒廃	-11.5694
▁累計	-11.5694
▁騎乗	-11.5694
▁沿革	-11.5694
▁羽衣	-11.5694
▁玄関	-11.5694
▁望む	-11.5694
▁常設	-11.5694
▁公益	-11.5695
▁祭神	-11.5695
▁親族	-11.5696
▁排水	-11.5696
▁鋭い	-11.5696
▁読み上げ	-11.5697
▁引き上げ	-11.5698
▁阿部	-11.5698
▁疑い	-11.57
▁蘇	-11.57
ドン	-11.5701
▁ボリビア	-11.5704
逆	-11.5704
▁モニター	-11.5704
▁ハンター	-11.5704
▁まだまだ	-11.5704
ルーシ	-11.5705
▁ローレンス	-11.5706
▁上告	-11.5708
▁プリンストン	-11.5708
▁サンタ	-11.5709
盛	-11.5714
▁スーツ	-11.5714
▁体型	-11.5714
▁センサー	-11.5717
▁育てる	-11.5723
▁出来上が	-11.5723
ネシア	-11.573
▁継ぐ	-11.5731
▁更	-11.5736
▁欠か	-11.5737
建	-11.5742
▁割れ	-11.5752
▁ドラマー	-11.5769
▁豚	-11.5771
▁帽子	-11.5771
▁ワークス	-11.5772
▁思考	-11.5777
▁凍結	-11.5777
▁虐殺	-11.5777
▁詳述	-11.5777
▁免除	-11.5777
▁対処	-11.5777
▁GK	-11.5777
▁情勢	-11.5777
▁閉店	-11.5777
▁撤回	-11.5777
▁復員	-11.5778
▁砂浜	-11.5778
▁写本	-11.5779
▁弱点	-11.5779
▁教団	-11.578
▁本校	-11.5783
▁折り	-11.5783
▁最北端	-11.5783
▁死別	-11.5784
▁わたし	-11.5785
▁ビルマ	-11.5786
▁打ち込	-11.5786
▁作用素	-11.5786
▁官職	-11.5786
▁レスラー	-11.5787
▁びっくり	-11.5787
▁労働党	-11.5788
▁ボスニア	-11.5788
▁屋上	-11.5789
タイム	-11.5791
▁カザフスタン	-11.5791
▁PR	-11.5791
▁安い	-11.5792
▁ウル	-11.5793
▁助ける	-11.5797
▁出血	-11.5799
▁水色	-11.58
▁ワークショップ	-11.5806
行わ	-11.5809
▁シャトル	-11.5812
戊	-11.5814
漑	-11.5814
灌	-11.5814
▁亭	-11.5815
弱	-11.582
▁級数	-11.5821
▁最上	-11.5821
▁随	-11.5822
練	-11.5823
▁ユニバーシ	-11.5824
闘	-11.5825
▁載っ	-11.5833
▁大橋	-11.5834
脳	-11.5835
▁中毒	-11.5842
▁ツイン	-11.5842
柱	-11.5844
グラフ	-11.5848
民主	-11.5853
かけ	-11.5854
▁ジャー	-11.5856
▁ネ	-11.5858
▁摩擦	-11.586
▁曾孫	-11.5861
▁凱旋	-11.5861
▁駄目	-11.5861
▁平衡	-11.5861
▁債務	-11.5861
▁早稲田	-11.5862
▁築造	-11.5862
▁知能	-11.5862
▁返上	-11.5863
▁除外	-11.5863
▁実証	-11.5864
▁教科	-11.5864
▁有意	-11.5866
▁を以て	-11.5867
▁近接	-11.5867
▁公使館	-11.5868
▁左大臣	-11.5868
▁相模原	-11.5869
▁乗り物	-11.587
突	-11.587
▁流出	-11.5871
▁木曜日	-11.5871
▁ハドソン	-11.5871
▁組み立て	-11.5871
▁いただく	-11.5872
▁二郎	-11.5872
▁スクロール	-11.5873
▁ニューオーリンズ	-11.5877
▁学派	-11.588
▁神学校	-11.5881
翔	-11.5891
▁いつか	-11.5893
▁オイル	-11.59
▁だり	-11.5901
▁げ	-11.5902
快	-11.5903
▁マイル	-11.5905
▁リース	-11.5909
▁慈	-11.5923
▁ぅ	-11.5928
ナイト	-11.5932
▁釧	-11.5933
▁鮮	-11.5933
▁月間	-11.5935
▁始	-11.5938
▁発する	-11.5941
▁仕掛け	-11.5946
▁警告	-11.5946
▁寄贈	-11.5946
▁悟	-11.5946
▁佐伯	-11.5946
▁肌	-11.5946
▁転職	-11.5946
▁短歌	-11.5946
▁詩集	-11.5947
▁身近	-11.5948
▁弁護	-11.5948
▁変調	-11.5949
▁敷	-11.5949
▁合金	-11.5949
▁調和	-11.595
▁勲一等	-11.5952
▁VHS	-11.5952
▁掲示板	-11.5952
▁活かし	-11.5953
▁ライ	-11.5953
▁基金	-11.5953
▁アーチ	-11.5955
床	-11.5955
▁カプセル	-11.5956
▁ホイール	-11.5956
▁カリウム	-11.5956
▁バット	-11.5958
▁一般人	-11.5958
▁繋がり	-11.5958
▁サーキット	-11.5958
籍	-11.5958
▁マーシャル	-11.596
▁金色	-11.596
▁カタルーニャ	-11.596
▁ブリュッセル	-11.596
▁使い方	-11.5961
レット	-11.5961
▁知り合い	-11.5968
▁つとめる	-11.5973
▁次官	-11.5974
▁年表	-11.5974
▁シン	-11.5981
デル	-11.5981
春	-11.5982
ジャン	-11.5988
▁GI	-11.5994
▁辿	-11.5997
放	-11.6005
▁交わ	-11.6006
カ	-11.6012
▁鶏	-11.6019
▁楚	-11.6019
▁載せ	-11.6025
ンガ	-11.603
▁麻痺	-11.6031
▁伊予	-11.6031
▁拳銃	-11.6031
▁果樹	-11.6031
▁王妃	-11.6031
▁決議	-11.6032
▁出征	-11.6032
▁雨林	-11.6032
▁伊賀	-11.6034
▁豊橋	-11.6035
▁英文	-11.6036
▁バイオ	-11.6038
▁子育て	-11.6038
▁緒	-11.6038
高等	-11.6039
▁好調	-11.604
▁リソース	-11.6042
▁ノア	-11.6043
▁ディーゼル	-11.6043
▁マダガスカル	-11.6045
▁オーディオ	-11.605
▁刺	-11.6074
▁生年	-11.6078
▁キャップ	-11.6082
遂げ	-11.6092
本書	-11.6092
ゲーム	-11.6092
▁世話	-11.6092
▁モール	-11.6096
▁おん	-11.6097
▁サイ	-11.6101
▁凝	-11.6102
順	-11.6104
びれ	-11.6111
▁柔軟	-11.6117
▁池袋	-11.6118
▁系譜	-11.6118
▁就役	-11.6118
▁気圧	-11.6119
▁実態	-11.6119
▁赤字	-11.6121
▁下降	-11.6121
▁元首	-11.6122
▁岡本	-11.6122
▁管制	-11.6122
▁パズル	-11.6124
▁半導体	-11.6124
▁進路	-11.6124
▁ホンダ	-11.6124
▁あい	-11.6124
▁アーク	-11.6125
▁車輪	-11.6126
▁シアター	-11.6127
▁ファーム	-11.6128
▁フォックス	-11.613
▁調子	-11.6131
▁淵	-11.6131
▁コル	-11.6131
▁コメンテーター	-11.6133
▁国々	-11.6133
▁無理	-11.6133
▁コンサルティング	-11.6134
エ	-11.6135
雲	-11.6135
▁チャンピオンズ	-11.6137
▁書物	-11.614
▁甘い	-11.6143
▁あま	-11.6144
乳	-11.6144
▁日本橋	-11.6145
トレイ	-11.6146
▁ラト	-11.6149
▁揚	-11.6149
▁とり	-11.6154
▁大山	-11.6154
▁一生	-11.6158
ノー	-11.6163
▁五郎	-11.6167
陰	-11.6173
伴	-11.618
▁着く	-11.6189
▁国人	-11.6195
▁澄	-11.6195
▁唱え	-11.6198
▁琴	-11.62
▁とかいう	-11.6203
▁醤油	-11.6204
▁干渉	-11.6204
▁運搬	-11.6204
▁休暇	-11.6204
▁完備	-11.6204
▁韻律	-11.6204
▁巡礼	-11.6205
▁鎮座	-11.6205
▁工夫	-11.6205
▁随分	-11.6205
▁京王	-11.6206
▁続行	-11.6207
▁自称	-11.6208
▁残存	-11.6208
▁競う	-11.6209
▁起業	-11.6209
▁下野	-11.6209
▁削	-11.621
▁協奏曲	-11.6211
▁水族館	-11.6211
▁バナナ	-11.6211
▁セブン	-11.6211
▁不規則	-11.6211
爆	-11.6211
▁配下	-11.6213
▁バロック	-11.6215
▁なぜなら	-11.6215
▁小児	-11.6215
▁信用	-11.6216
▁レジスタ	-11.6217
▁少な	-11.6218
▁西武ライオンズ	-11.622
▁石室	-11.622
▁構える	-11.6222
あっ	-11.6233
▁ブー	-11.6234
▁パーソナリティー	-11.6236
▁番手	-11.6237
ギー	-11.6242
団	-11.6244
朴	-11.6246
▁愛する	-11.6249
ぜ	-11.6251
▁瓦	-11.6251
▁サー	-11.626
バイト	-11.6269
▁型式	-11.6271
▁飼	-11.6272
▁ループ	-11.6272
テーション	-11.6272
▁危	-11.6276
▁敦	-11.6278
i	-11.6278
末	-11.6279
▁麺	-11.628
▁金曜	-11.629
夕	-11.6292
▁雑草	-11.6292
▁溶媒	-11.6292
▁ギア	-11.6293
▁自衛	-11.6293
▁造成	-11.6294
▁株主	-11.6295
▁手塚	-11.6296
▁有罪	-11.6296
▁我	-11.6297
▁原画	-11.6297
▁耐性	-11.6298
▁踏まえ	-11.6298
▁VTR	-11.6298
▁皇太子	-11.6298
▁持ち味	-11.6301
▁行こ	-11.6301
▁ジェリー	-11.6302
▁やり取り	-11.6302
遍	-11.6303
▁ライナー	-11.6304
▁アンケート	-11.6304
▁ありがとう	-11.6304
▁メタル	-11.6307
▁松井	-11.6307
▁コペンハーゲン	-11.6307
▁巡る	-11.6308
▁プランク	-11.631
▁ホルマント	-11.6311
▁内訳	-11.6312
▁光線	-11.6314
▁あくまでも	-11.6315
▁っちゅう	-11.6316
▁トロ	-11.6317
▁EC	-11.6317
▁透	-11.6319
▁北極	-11.6321
▁鑑	-11.6324
▁トニー	-11.6324
父母	-11.6331
▁キス	-11.6335
▁取り上げる	-11.6337
▁世間	-11.6337
▁同定	-11.6342
▁憲	-11.6344
▁ドナルド	-11.6351
晶	-11.6351
検	-11.6354
ーン	-11.636
▁クレー	-11.6365
▁尹	-11.6368
▁僧侶	-11.6381
▁蓄積	-11.6381
▁専任	-11.6381
▁邸宅	-11.6381
▁幸福	-11.6381
▁養父	-11.6381
▁工房	-11.6381
▁改組	-11.6382
▁織物	-11.6383
▁浪人	-11.6383
▁賞賛	-11.6384
▁返	-11.6385
似	-11.6385
▁艦船	-11.6386
▁キネマ	-11.6387
▁爬虫類	-11.6387
▁屈	-11.6387
▁運ぶ	-11.6387
▁中身	-11.6388
▁及ぼす	-11.6388
▁ワード	-11.6389
▁弱く	-11.6389
▁立命館大	-11.639
酷	-11.6392
▁路上	-11.6392
▁エルサレム	-11.6393
▁クレーター	-11.6393
▁プレミアム	-11.6393
▁もらえる	-11.6394
▁セキュリティ	-11.6395
スティック	-11.6398
▁スーパーマーケット	-11.6398
▁抱える	-11.6399
▁デッキ	-11.64
▁ネズミ	-11.6401
▁角川	-11.6401
▁管内	-11.6404
▁快	-11.6418
▁体格	-11.6422
▁腐	-11.6423
▁ヘリ	-11.6425
▁アレクサンド	-11.643
▁銘	-11.6432
▁蜂	-11.6433
▁市原	-11.6435
剤	-11.6442
▁ついで	-11.6445
▁ヨーク	-11.6449
▁緩	-11.6449
▁イス	-11.6456
▁一門	-11.6457
鉛	-11.6464
▁初出	-11.6469
▁参与	-11.647
▁樹脂	-11.647
▁補強	-11.647
▁推論	-11.6471
▁退却	-11.6471
▁決戦	-11.6471
▁集積	-11.6471
▁通知	-11.6474
▁追い込	-11.6475
ジナル	-11.6475
▁貝	-11.6476
▁カエル	-11.6477
▁引き取	-11.6478
▁アルファ	-11.648
▁樺	-11.6481
▁ネコ	-11.6482
▁おこなう	-11.6482
▁きょう	-11.6484
▁水域	-11.6484
▁同志社大学	-11.6485
▁行ける	-11.6485
▁催	-11.6488
▁緑地	-11.6491
▁ぐ	-11.6492
▁春秋	-11.6493
▁潤	-11.6496
▁察	-11.6498
▁減ら	-11.65
▁兼ねる	-11.65
▁エラー	-11.6509
播	-11.6513
聴	-11.6516
▁久保	-11.6523
▁ミックス	-11.6537
丁	-11.6542
▁渓	-11.6554
▁猿	-11.6554
▁不全	-11.6555
▁挙	-11.6556
▁和歌	-11.6559
▁戴冠	-11.656
▁断絶	-11.656
▁旋律	-11.656
▁蜂起	-11.656
▁婚約	-11.656
▁天才	-11.656
▁混在	-11.6561
▁祭壇	-11.6561
▁関白	-11.6562
▁痛め	-11.6562
▁起動	-11.6562
▁半径	-11.6562
▁ダーク	-11.6566
途	-11.6566
▁便宜上	-11.6567
▁コス	-11.6567
▁多年生	-11.6568
▁優しい	-11.6569
経	-11.6569
▁コロニー	-11.657
▁もっぱら	-11.657
▁フェイス	-11.657
▁きちんと	-11.657
▁水曜日	-11.6573
▁毎日放送	-11.6573
▁ノーフォーク	-11.6574
▁パラリンピック	-11.6575
▁才	-11.6576
立ち	-11.6579
▁出世	-11.6581
▁サーバー	-11.6582
▁重ねる	-11.6587
▁さくら	-11.6587
▁互い	-11.6596
▁ベースボール	-11.6597
▁淡い	-11.6599
▁電鉄	-11.6601
埴	-11.6604
苞	-11.6604
ヶ	-11.6621
▁日野	-11.6621
▁もち	-11.6621
▁グラス	-11.6628
庄	-11.6628
鹿	-11.6631
覇	-11.6634
▁國	-11.6638
▁瞬	-11.6644
斉	-11.6649
抜	-11.665
▁終焉	-11.6651
▁探査	-11.6651
▁硬貨	-11.6651
▁劣化	-11.6651
▁源泉	-11.6652
▁接合	-11.6653
▁球形	-11.6654
▁忍者	-11.6654
▁所領	-11.6655
▁長老	-11.6656
▁宣教師	-11.6657
▁スカ	-11.6657
▁悲しみ	-11.6658
▁祖父母	-11.6659
▁親王	-11.6661
▁輝く	-11.6662
▁有馬	-11.6663
▁バングラデ	-11.6663
▁見送	-11.6663
▁励	-11.6664
▁本殿	-11.6664
▁届け	-11.6664
▁楽しく	-11.6665
▁告げる	-11.6665
▁エンターテイメント	-11.6668
▁揚げ	-11.6674
▁見れ	-11.6674
▁オックスフォード大学	-11.6675
美術	-11.6687
菌	-11.6688
▁クリーム	-11.6688
▁十字	-11.6688
▁収める	-11.6692
▁退院	-11.6693
フ	-11.6696
鄭	-11.6696
ユーラ	-11.6701
▁妙	-11.6706
▁座っ	-11.6707
ルター	-11.6712
ハム	-11.6715
デルタ	-11.6717
▁果たして	-11.6719
▁世界一	-11.6719
▁詰め	-11.672
▁乾	-11.6729
4	-11.6729
▁リアル	-11.6731
ィヒ	-11.6733
▁何で	-11.6737
▁妨害	-11.6742
▁採択	-11.6742
▁演歌	-11.6743
▁離散	-11.6743
▁孤立	-11.6743
▁紙幣	-11.6743
▁値段	-11.6744
▁適当	-11.6744
▁皇子	-11.6745
印	-11.6746
▁城跡	-11.6746
▁使い分け	-11.6746
▁渡来	-11.6747
▁会談	-11.6748
▁伊東	-11.6749
▁最高峰	-11.6749
▁任天堂	-11.6749
▁大砲	-11.6751
▁紋	-11.6752
▁スーダン	-11.6752
▁待つ	-11.6753
▁ヴァイ	-11.6753
▁取り戻し	-11.6753
▁労働省	-11.6754
▁赤道	-11.6754
▁武家	-11.6755
▁最期	-11.6756
以下	-11.6756
▁持ち主	-11.6758
▁もし	-11.6758
▁ノンフィクション	-11.6759
▁越える	-11.6761
▁官庁	-11.6762
▁かかり	-11.6765
▁負う	-11.6766
潔	-11.6767
▁かかわる	-11.6769
▁一言	-11.6773
▁晴れ	-11.678
▁鷲	-11.6781
▁数量	-11.6787
人民共和国	-11.6789
アイランド	-11.6789
ラスカ	-11.6793
ルバイ	-11.6793
▁厚い	-11.6795
取	-11.6802
▁嬉し	-11.6821
▁著し	-11.6832
▁哲	-11.6834
▁同僚	-11.6835
▁一揆	-11.6835
▁復讐	-11.6835
▁恐慌	-11.6835
▁阻止	-11.6835
▁培養	-11.6835
▁信徒	-11.6836
▁客観	-11.6836
▁離党	-11.6836
▁悩み	-11.6837
▁語り	-11.6838
続き	-11.6839
▁最寄駅	-11.6841
▁ポンプ	-11.6841
▁サハラ	-11.6841
邦	-11.6843
▁まつり	-11.6845
▁役立つ	-11.6847
▁クォーター	-11.6847
▁ブダペスト	-11.6847
▁エントリー	-11.6847
▁書き下ろし	-11.6848
▁安心	-11.6848
▁県境	-11.6848
▁交通省	-11.685
▁スタンフォード	-11.685
▁名残	-11.686
領	-11.6864
▁アレ	-11.6865
▁リレー	-11.6866
▁天国	-11.6868
グラス	-11.6869
▁ボーイ	-11.6869
▁取れる	-11.687
つい	-11.6872
▁ディフェンダー	-11.6873
▁赤く	-11.6875
▁菜	-11.6876
▁ディスプレ	-11.6876
慢	-11.688
ベック	-11.6882
烈	-11.6886
具	-11.6889
5	-11.6897
▁ワ	-11.6898
▁ベリー	-11.6901
▁打つ	-11.6902
合わせ	-11.6902
▁ヘル	-11.6908
操	-11.6912
プル	-11.6915
▁遮	-11.6915
▁漆	-11.6916
▁嘘	-11.6916
▁息	-11.6919
▁メイク	-11.6922
▁附	-11.6923
▁庵	-11.6923
まり	-11.6924
▁深め	-11.6927
▁妖精	-11.6928
▁奉仕	-11.6928
▁PK	-11.6929
▁儀礼	-11.6929
▁静止	-11.6929
▁捕らえ	-11.6929
▁青銅	-11.6929
▁確信	-11.6929
▁反復	-11.6929
▁採取	-11.6929
▁特攻	-11.6929
▁被爆	-11.6929
▁岩礁	-11.6929
▁斜	-11.6929
▁転機	-11.6929
▁執政	-11.693
▁真相	-11.693
▁誇り	-11.6932
▁火事	-11.6933
▁便所	-11.6933
▁踊る	-11.6934
▁永井	-11.6934
▁症候群	-11.6935
▁準ずる	-11.6935
▁石灰岩	-11.6935
▁モダン	-11.6935
▁音波	-11.6938
▁テンソル	-11.6938
▁劇団四季	-11.6938
▁ダグラス	-11.6938
▁サックス	-11.6939
レン	-11.6941
▁セルフ	-11.6942
▁ハードウェア	-11.6943
▁小中学校	-11.6944
シン	-11.6945
そう	-11.6946
▁笑い	-11.6946
▁トリオ	-11.6947
▁会派	-11.6947
▁沢	-11.6947
▁等級	-11.6951
▁デバイス	-11.6953
▁合体	-11.6954
▁ずれ	-11.6957
▁エリー	-11.6962
▁本物	-11.6965
▁藍	-11.6966
▁理学	-11.697
▁薄	-11.6971
ップ	-11.6973
▁嚢	-11.6978
学園	-11.6979
▁デラ	-11.6986
▁エリ	-11.6986
ロッキー	-11.6989
▁体内	-11.6991
▁組む	-11.7009
▁萼	-11.701
▁コー	-11.7013
▁中田	-11.7016
▁諦め	-11.7023
▁津軽	-11.7023
▁完走	-11.7023
▁魔女	-11.7023
▁演目	-11.7023
▁逃走	-11.7023
▁洋楽	-11.7023
▁売春	-11.7024
▁品詞	-11.7024
▁別途	-11.7025
▁治世	-11.7025
▁造形	-11.7026
▁星座	-11.7026
▁樹立	-11.7028
▁喫茶店	-11.7029
▁高麗	-11.7029
▁無声	-11.703
▁パンチ	-11.703
▁小柄	-11.703
▁ケネディ	-11.7033
▁バルカン	-11.7033
▁近辺	-11.7033
▁フェア	-11.7036
注	-11.7038
▁ルクセンブルク	-11.7038
▁フリード	-11.7038
▁鉄筋コンクリート	-11.7039
▁会う	-11.7041
▁タッチ	-11.7043
▁井戸	-11.7046
▁スピーチ	-11.7046
▁かく	-11.7053
▁アルプス	-11.7055
随	-11.7057
▁袖	-11.706
ケット	-11.706
リコン	-11.706
▁つくる	-11.7061
▁テクノロジー	-11.7067
嶋	-11.7069
ガス	-11.7071
▁談	-11.7072
▁フレーズ	-11.7081
▁ウィン	-11.7091
▁ひと	-11.7097
紙	-11.7105
▁始祖	-11.7118
▁召集	-11.7118
▁決着	-11.7118
▁飛躍	-11.7118
▁命題	-11.7118
▁木曽	-11.7119
▁原案	-11.7119
▁結末	-11.712
▁勝敗	-11.712
▁賭け	-11.7121
▁重臣	-11.7122
▁FW	-11.7123
▁集約	-11.7123
▁ヨハネ	-11.7124
▁Wii	-11.7124
▁三味線	-11.7124
▁ヤマハ	-11.7124
▁世の中	-11.7124
▁ラオス	-11.7125
▁ケリー	-11.7125
▁従兄弟	-11.7125
▁エビ	-11.7126
▁出張	-11.7127
▁アンナ	-11.7127
▁追っ	-11.7128
▁黒星	-11.7128
▁カタログ	-11.7128
▁マルクス	-11.7128
▁チュニ	-11.7129
▁乏しい	-11.713
▁追う	-11.713
▁水源	-11.713
▁ツーリング	-11.713
▁クイーンズ	-11.7131
▁メンテナンス	-11.7132
キ	-11.7133
▁パワーアップ	-11.7133
▁流用	-11.7134
▁日本コロムビア	-11.7135
▁名字	-11.7139
▁ストック	-11.7142
▁トライアル	-11.7144
▁一様	-11.7146
▁フィードバック	-11.7149
▁ティー	-11.7152
▁融	-11.7158
▁長調	-11.7158
▁歌人	-11.7162
廷	-11.7164
▁保つ	-11.7166
匍	-11.7168
匐	-11.7168
基督教	-11.7168
腔	-11.7168
ゲン	-11.7171
述	-11.7173
新幹線	-11.7175
▁一等	-11.7176
▁土産	-11.7176
▁フロー	-11.7177
谷川	-11.718
▁椅子	-11.7184
老	-11.7197
▁させる	-11.7199
▁暁	-11.7202
▁尿	-11.7205
▁直し	-11.721
▁具合	-11.721
将軍	-11.7211
▁篤	-11.7213
▁出仕	-11.7214
▁支給	-11.7214
▁注射	-11.7214
▁増強	-11.7215
▁条項	-11.7215
▁除隊	-11.7215
▁愛情	-11.7216
▁別荘	-11.7216
▁農園	-11.7216
▁明記	-11.7216
▁細分	-11.7218
▁投下	-11.7219
▁入局	-11.7219
▁多年草	-11.722
▁菩提寺	-11.722
▁富士通	-11.7221
▁進級	-11.7221
▁酒井	-11.7222
▁去年	-11.7222
▁予備校	-11.7223
▁交戦	-11.7224
▁ワーナー	-11.7224
▁シチリア	-11.7224
▁インカレ	-11.7224
▁ハワード	-11.7224
▁オファー	-11.7224
▁坊	-11.7226
▁天然記念物	-11.7226
▁サーフィン	-11.7226
▁ソフトバンク	-11.7228
▁ドミニカ共和国	-11.723
▁ヤクルトスワローズ	-11.7231
▁本丸	-11.7234
▁改める	-11.7239
▁込	-11.724
▁平ら	-11.7242
▁プラ	-11.7245
▁しろ	-11.7247
▁実子	-11.7248
▁艦長	-11.7249
▁去る	-11.725
▁分化	-11.726
▁スラム	-11.726
公式	-11.7261
▁エス	-11.7261
略	-11.7264
ギニア	-11.7266
▁まね	-11.7275
▁IT	-11.728
▁LG	-11.728
空港	-11.7286
▁アドレス	-11.7293
▁テレ	-11.7295
悪	-11.73
▁沙	-11.7305
▁ホッケー	-11.7306
▁招聘	-11.7311
▁酪農	-11.7311
▁陰謀	-11.7311
▁粉末	-11.7311
▁賃金	-11.7312
▁並列	-11.7312
▁負荷	-11.7312
▁兄妹	-11.7312
▁伝記	-11.7313
▁悪役	-11.7313
▁簡素	-11.7314
▁領有	-11.7315
▁違法	-11.7315
▁翌朝	-11.7315
▁ゆかり	-11.7318
犯	-11.7318
▁火曜日	-11.7319
▁小学館	-11.732
▁ソマリ	-11.732
▁キプロス	-11.7321
▁ダニエル	-11.7321
▁サイパン	-11.7321
▁プリンス	-11.7321
▁ル	-11.7322
▁クーデター	-11.7323
▁スターリン	-11.7324
▁徒	-11.7325
▁ベオグラード	-11.7325
▁スーパーボウル	-11.7327
▁名高い	-11.7332
序	-11.7342
▁足り	-11.7346
▁ヒン	-11.7348
▁かい	-11.736
▁廉	-11.736
礁	-11.7361
悼	-11.7363
隋	-11.7363
▁水生	-11.7367
▁吹	-11.7369
▁シャン	-11.738
▁北海	-11.7382
▁刊	-11.7388
▁舟	-11.7397
▁意外	-11.7404
▁転移	-11.7409
▁散乱	-11.7409
▁転落	-11.741
▁汎用	-11.741
▁釜山	-11.741
▁太夫	-11.741
▁閉校	-11.741
▁箱根	-11.741
▁営利	-11.7411
▁公示	-11.7411
▁極限	-11.7412
▁浜田	-11.7414
▁やって来	-11.7414
▁心不全	-11.7416
▁意義	-11.7416
▁うどん	-11.7416
▁呼び名	-11.7418
パート	-11.7419
▁着目	-11.7419
▁上回る	-11.742
▁ユーザ	-11.742
深	-11.7421
▁戦中	-11.7422
▁当てはまる	-11.7422
▁地方自治体	-11.7423
▁アドバイザー	-11.7423
▁アンダーソン	-11.7423
▁エントロピー	-11.7425
▁イスタンブール	-11.7425
震	-11.7425
▁クリーク	-11.7427
▁スプリント	-11.7428
余	-11.7432
ミックス	-11.7435
▁待	-11.7437
なかっ	-11.7438
▁すす	-11.7438
▁了	-11.744
▁ジン	-11.7441
ウム	-11.7445
▁倉	-11.7452
緯	-11.7456
他	-11.7456
▁ダッシュ	-11.7458
ac	-11.7462
筐	-11.7462
▁マックス	-11.7474
題	-11.7484
▁やろ	-11.7487
▁猟	-11.7487
▁なんと	-11.7488
▁鳩	-11.7496
航空	-11.7506
▁注釈	-11.7508
▁情熱	-11.7508
▁遊園	-11.7509
▁魔術	-11.7509
▁格差	-11.7509
▁日産	-11.7512
▁窪	-11.7513
▁怖い	-11.7513
▁めぐる	-11.7514
▁不明瞭	-11.7514
▁NFL	-11.7515
▁密生	-11.7516
つくば	-11.7516
▁大敗	-11.7518
▁ガソリン	-11.7518
▁シンガー	-11.7518
▁ノーマル	-11.7518
▁バレンシア	-11.752
▁フットサル	-11.752
▁クリスタル	-11.7521
▁バークレー	-11.7521
▁クラリネット	-11.7522
▁ブルターニュ	-11.7522
▁決まり	-11.7523
避	-11.7523
▁ニュルンベルク	-11.7524
▁インストラクター	-11.7525
▁都会	-11.7527
▁フラッシュ	-11.7528
込	-11.7531
すく	-11.7531
▁内務	-11.7535
フランス	-11.7536
▁航	-11.7539
▁合わせる	-11.7539
▁数える	-11.754
▁存	-11.7541
リック	-11.7544
▁果た	-11.7554
▁廊	-11.7555
取っ	-11.7556
奄	-11.7562
ルギー	-11.7564
▁キュー	-11.7566
▁理学部	-11.7567
航	-11.7567
顎	-11.7573
ナム	-11.7576
婦	-11.7576
▁旋	-11.7581
▁秘	-11.7582
▁棚	-11.7583
リエ	-11.7598
▁つう	-11.7601
なさ	-11.7602
▁撃破	-11.7608
▁財閥	-11.7608
▁撃退	-11.7608
▁抜粋	-11.7608
▁銘柄	-11.7608
▁救済	-11.7609
▁石碑	-11.761
▁居城	-11.761
▁定番	-11.761
▁振幅	-11.7611
▁通販	-11.7612
▁顕微鏡	-11.7614
▁最年長	-11.7614
アスレチック	-11.7617
▁側近	-11.7617
▁イレブン	-11.7618
▁ヤクルト	-11.7618
▁アマゾン	-11.7618
▁アピール	-11.7618
▁マーティン	-11.762
▁サテライト	-11.762
▁ディーラー	-11.762
▁分配	-11.7621
▁OB	-11.7622
▁軽く	-11.7624
▁メロディー	-11.7624
▁陸地	-11.7624
▁モータースポーツ	-11.7625
▁シュトゥットガルト	-11.7625
▁用例	-11.7626
▁WT	-11.7626
▁草地	-11.7627
▁知り合	-11.763
▁枚数	-11.764
▁羽田	-11.7643
▁島々	-11.7646
▁アム	-11.7649
▁分家	-11.7652
ドゥー	-11.7653
▁アク	-11.7653
▁有名人	-11.7658
▁立てる	-11.766
▁エコー	-11.7662
畠	-11.7663
パドレス	-11.7663
インディアンス	-11.7663
▁ライプ	-11.7669
▁中隊	-11.767
▁さす	-11.7672
▁デー	-11.7686
▁阪	-11.7691
ラヴ	-11.7696
▁扇	-11.7697
▁DN	-11.7697
▁しょ	-11.77
▁設ける	-11.7701
▁思え	-11.7705
▁婚姻	-11.7709
▁借金	-11.7709
▁律令	-11.7709
▁決済	-11.7709
▁晩	-11.7709
▁慣習	-11.7709
▁隆盛	-11.771
▁に際し	-11.771
オリオ	-11.7712
▁弘前	-11.7712
▁争う	-11.7713
▁仲良く	-11.7715
▁メイド	-11.7716
▁ブラッド	-11.7719
▁準じ	-11.7721
▁二酸化炭素	-11.7721
▁視野	-11.7723
▁キロメートル	-11.7723
▁マスターズ	-11.7724
▁クリエイティブ	-11.7725
▁トレードマーク	-11.7725
▁ビザ	-11.7725
▁西宮	-11.7726
▁プラット	-11.7727
▁須	-11.7729
当たり	-11.773
▁後で	-11.773
▁信州	-11.773
▁トマト	-11.7736
▁硬い	-11.7737
偶	-11.7738
▁美人	-11.7738
あ	-11.774
▁人文	-11.7745
ど	-11.7748
▁できるだけ	-11.775
▁佐倉	-11.7751
▁主席	-11.7754
譲	-11.7759
頸	-11.7765
▁作物	-11.7768
▁つる	-11.777
▁ヴェ	-11.7771
設	-11.7773
監督	-11.7774
▁僕ら	-11.7779
▁苦し	-11.7781
▁地主	-11.7785
▁径	-11.7788
ロー	-11.7791
納	-11.7796
▁毅	-11.7799
▁夕	-11.7811
▁目覚め	-11.7811
▁失踪	-11.7811
▁平壌	-11.7811
▁訂正	-11.7811
▁履歴	-11.7811
▁丁寧	-11.7811
▁転校	-11.7811
▁中枢	-11.7811
▁ボブ	-11.7812
▁述語	-11.7812
▁筆記	-11.7812
▁指向	-11.7812
▁円筒	-11.7812
▁明示	-11.7812
▁公使	-11.7812
▁対比	-11.7812
▁理念	-11.7812
▁収縮	-11.7812
▁置換	-11.7812
▁世襲	-11.7812
▁集計	-11.7813
▁間違え	-11.7813
▁放置	-11.7814
▁霊場	-11.7814
▁暗色	-11.7815
▁波動	-11.7816
▁三振	-11.7817
▁小泉	-11.7817
▁あちこち	-11.7821
▁デパート	-11.7821
▁コーン	-11.7825
▁ハイブリッド	-11.7825
▁故	-11.7827
▁フィルハーモニー	-11.7828
▁ボランチ	-11.7829
▁季	-11.7832
▁クライアント	-11.7833
▁いとこ	-11.7834
▁レオ	-11.784
▁会い	-11.784
▁フォーミュ	-11.7841
▁覚える	-11.7842
軽	-11.7844
▁ゲ	-11.7848
▁近づ	-11.7856
▁たまに	-11.7864
7	-11.7866
▁込め	-11.7866
▁それと	-11.7868
イン	-11.7874
▁壊れ	-11.7875
潮	-11.788
▁大国	-11.7886
8	-11.7895
▁宛	-11.7902
▁臀	-11.7902
須	-11.7903
▁咲	-11.7906
▁ロット	-11.7906
▁大社	-11.7907
▁訪ね	-11.7908
▁金田	-11.7909
守	-11.7911
▁拒絶	-11.7914
▁封鎖	-11.7914
▁絶賛	-11.7914
▁宣告	-11.7915
▁バグ	-11.7915
▁混同	-11.7915
▁属す	-11.7915
▁本山	-11.7915
▁踊	-11.7916
▁全休	-11.7916
▁柴田	-11.7916
▁壮	-11.7917
▁卸	-11.7917
▁変種	-11.7918
▁教職	-11.7918
▁着任	-11.792
▁湿原	-11.792
▁ウサギ	-11.792
▁落とす	-11.7922
▁主軸	-11.7923
▁小字	-11.7923
▁マリノス	-11.7924
▁オリーブ	-11.7924
▁フェロー	-11.7924
▁をめぐって	-11.7926
▁プロトコル	-11.7927
▁飛ば	-11.7927
▁歌曲	-11.7928
▁当たり前	-11.7928
▁加わり	-11.7928
▁ディフェンス	-11.7928
▁台車	-11.7928
▁開会	-11.7928
▁に対しまして	-11.7929
▁暑い	-11.7936
券	-11.794
▁瓶	-11.794
▁ラベル	-11.7941
▁トウ	-11.7942
▁直面	-11.7944
レスト	-11.7946
▁不完全	-11.7948
▁撮	-11.7949
われ	-11.795
問	-11.7956
▁それだけ	-11.7957
▁答える	-11.7958
填	-11.7972
▁茶道	-11.7974
▁クルー	-11.7988
芽	-11.7988
▁ウー	-11.7988
▁やっと	-11.7995
▁バリ	-11.7997
▁名物	-11.7999
▁儒	-11.8003
ロイド	-11.8004
▁いれ	-11.8005
▁乙	-11.8006
▁惹	-11.8006
▁面白	-11.8009
並	-11.8012
▁酢	-11.8014
▁同大	-11.8018
▁哲也	-11.8018
▁湿潤	-11.8018
▁快挙	-11.8018
▁住吉	-11.8018
▁飲酒	-11.8018
▁柔術	-11.8018
▁派閥	-11.8019
▁偶数	-11.8019
▁様相	-11.8019
▁冷房	-11.8019
▁絶版	-11.8019
▁予め	-11.802
▁入選	-11.802
▁出展	-11.8021
▁襲名	-11.8021
▁正直	-11.8022
▁カジノ	-11.8024
▁概して	-11.8025
▁薬剤師	-11.8025
▁四日市	-11.8025
▁願	-11.8026
▁サマー	-11.8026
▁右大臣	-11.8026
▁ミクロ	-11.8026
▁チャリティ	-11.8026
▁仕上げ	-11.8026
▁祈り	-11.8027
▁ジュリア	-11.8027
▁カクテル	-11.8028
▁主成分	-11.8029
▁太平	-11.8029
リズム	-11.8029
▁クルーズ	-11.8029
▁津田	-11.803
▁大日本帝国	-11.8031
メン	-11.8031
▁丸い	-11.8031
▁ニュートン	-11.8032
▁フィレンツェ	-11.8032
引	-11.8033
ザンビ	-11.8034
▁竹内	-11.8037
▁両論	-11.8038
教育	-11.8042
ウス	-11.8049
持ち	-11.805
▁旨	-11.805
▁法制	-11.8053
▁本郷	-11.8053
固	-11.8056
▁広範	-11.8061
▁勝つ	-11.8063
▁ザクセン	-11.8066
▁大地	-11.8071
▁セックス	-11.8072
▁黒田	-11.8076
&	-11.8078
半	-11.808
朽	-11.8087
▁p	-11.8089
▁澤	-11.8092
テン	-11.8099
冷	-11.8103
ツイン	-11.8108
▁籠	-11.8111
評	-11.8112
▁辻	-11.8119
▁廃墟	-11.8124
▁踏む	-11.8124
▁飛騨	-11.8124
▁泳ぐ	-11.8124
▁破棄	-11.8124
▁強盗	-11.8124
▁塗り	-11.8124
▁耐え	-11.8124
▁不幸	-11.8124
▁切符	-11.8124
▁水溶	-11.8124
▁予言	-11.8124
▁録画	-11.8124
▁突出	-11.8124
▁心筋	-11.8125
▁参画	-11.8125
▁交付	-11.8125
▁ママ	-11.8126
あのー	-11.8126
▁互生	-11.8126
▁雛	-11.8127
▁厚く	-11.8127
▁四郎	-11.8128
▁すね	-11.8129
▁ムーア	-11.813
▁議事堂	-11.813
▁松尾	-11.8133
▁タービン	-11.8133
▁ブッシュ	-11.8133
▁スライド	-11.8134
死傷	-11.8134
▁レジャー	-11.8135
南道	-11.8136
▁日立製作所	-11.8136
▁サポーター	-11.8136
▁素人	-11.8136
▁レス	-11.8137
▁チューリッヒ	-11.8138
▁フロンティア	-11.8138
▁フェニックス	-11.8138
ラン	-11.8139
▁トロフィー	-11.8139
▁話せる	-11.8139
産業	-11.8141
▁レポート	-11.8142
▁生理	-11.8144
▁嬉しい	-11.8145
▁辰	-11.8147
▁彩	-11.8148
▁アラン	-11.8149
▁兵部	-11.816
▁豆	-11.816
▁われ	-11.816
▁丈夫	-11.8165
半島	-11.8168
郭	-11.8169
▁ゲル	-11.817
▁ロール	-11.8172
▁長所	-11.8181
▁年上	-11.8182
▁安く	-11.8183
遇	-11.8183
胡	-11.8184
舵	-11.8184
▁腸	-11.8192
▁プリント	-11.82
▁瀬	-11.8207
▁人質	-11.8211
▁折り返	-11.8215
▁瑞	-11.8217
▁拘	-11.8218
▁岬	-11.8218
▁張り	-11.8218
▁互	-11.8218
▁訓	-11.8221
▁懐	-11.8222
包	-11.8225
▁ハロ	-11.8228
▁延伸	-11.823
▁克服	-11.823
▁小樽	-11.823
▁歪み	-11.823
▁処女	-11.823
▁皇族	-11.823
▁規約	-11.8231
▁強め	-11.8232
▁野鳥	-11.8232
▁お茶	-11.8233
▁執り	-11.8235
▁修業	-11.8235
▁まとま	-11.8235
▁類別	-11.8236
▁グレイ	-11.8236
▁物件	-11.8236
ディ	-11.8237
▁面接	-11.8237
▁白石	-11.8238
▁同居	-11.8238
▁減らす	-11.8238
▁インチ	-11.8238
演	-11.8239
▁公館	-11.8239
▁ユニーク	-11.824
▁ラッセル	-11.824
▁オーダー	-11.824
▁ヴィ	-11.824
協	-11.8241
▁スクウェア	-11.8242
▁フェラーリ	-11.8242
▁マスコット	-11.8242
▁カルシウム	-11.8242
▁いただけ	-11.8243
FL	-11.8243
▁スコアラー	-11.8243
▁客車	-11.8243
m	-11.8244
▁マクドナルド	-11.8244
▁映	-11.8245
▁登る	-11.825
▁中西部	-11.825
▁抑える	-11.8252
▁止める	-11.8253
自由	-11.8258
▁本番	-11.8261
▁雑	-11.8261
▁家電	-11.8263
▁寸	-11.8263
▁LP	-11.8264
▁開山	-11.8267
▁大勢	-11.8269
効	-11.8273
▁蒲	-11.8278
▁ガリ	-11.8291
匿	-11.8291
▁次長	-11.8293
▁ID	-11.8309
▁初年	-11.831
擬	-11.8314
▁エク	-11.8316
旨	-11.8319
▁傘	-11.8324
▁漸	-11.8325
▁ツリー	-11.8326
▁涼	-11.8327
傍	-11.8328
▁揃え	-11.8333
拝	-11.8334
▁カーネ	-11.8337
▁均衡	-11.8337
▁洗濯	-11.8337
▁孤独	-11.8337
▁注ぐ	-11.8337
▁枢密	-11.8338
▁稲荷	-11.8338
▁除籍	-11.8338
▁膨張	-11.8338
▁漁港	-11.8338
▁補償	-11.8338
▁書簡	-11.8338
▁志向	-11.8338
▁溶接	-11.8338
▁充電	-11.8338
▁病没	-11.8338
▁運送	-11.8339
▁喉頭	-11.8339
▁道徳	-11.834
▁急死	-11.834
▁部署	-11.8341
▁通報	-11.8342
▁真面目	-11.8344
▁鴨	-11.8344
▁あいだ	-11.8344
▁欠く	-11.8344
▁テンポ	-11.8345
▁ゲノム	-11.8346
▁漏れ	-11.8346
▁秩父	-11.8346
▁不調	-11.8347
▁読売新聞	-11.8347
▁弾き語り	-11.8347
▁バーデン	-11.8347
▁体積	-11.8347
▁南西諸島	-11.8348
▁書ける	-11.8349
▁原点	-11.835
▁ピラミッド	-11.835
▁フライト	-11.835
▁レフェリー	-11.835
▁再興	-11.835
▁セレッソ大阪	-11.8351
込み	-11.8351
▁ウィキペディア	-11.8353
▁クレジットカード	-11.8354
マー	-11.8355
図	-11.8357
▁多摩川	-11.8359
▁弦楽	-11.8359
▁渡し	-11.836
▁逃げる	-11.8362
▁土日	-11.8364
▁ワイ	-11.8364
▁プライム	-11.8364
▁当てる	-11.8365
▁思	-11.8365
▁盛り上が	-11.8365
▁牙	-11.8367
▁イエ	-11.8371
▁カイ	-11.8371
▁らし	-11.8372
ゼ	-11.8374
▁嫁	-11.8376
▁たった	-11.8389
除	-11.8392
広	-11.8401
▁下げ	-11.8404
票	-11.8404
粉	-11.841
礼	-11.8412
▁同義	-11.8413
▁ドレス	-11.8421
腕	-11.843
示	-11.8431
▁下町	-11.8433
▁パール	-11.8433
▁浄	-11.8437
▁ゴ	-11.8438
ウンド	-11.844
▁召喚	-11.8446
▁洗浄	-11.8446
▁転送	-11.8447
▁食糧	-11.8447
▁昇任	-11.8447
▁住職	-11.8447
▁不況	-11.8447
▁め	-11.8448
▁駐留	-11.8448
▁ぼく	-11.8448
▁出航	-11.845
▁不変	-11.845
▁申し出	-11.845
▁併	-11.8451
▁教派	-11.8451
▁アダム	-11.8451
▁花崗岩	-11.8452
▁マツダ	-11.8452
▁イルカ	-11.8452
▁モスク	-11.8453
▁酒造	-11.8453
▁世帯	-11.8454
▁蓮	-11.8454
ンブル	-11.8455
▁松戸	-11.8455
▁ソフィア	-11.8456
▁ホルモン	-11.8456
務省	-11.8456
▁チャネル	-11.8456
▁弁当	-11.8456
▁まるで	-11.8457
ーリンズ	-11.8457
▁ガンバ大阪	-11.8458
▁モンテネグロ	-11.846
▁長良	-11.8461
▁山号	-11.8462
▁法務	-11.8462
▁ファンクラブ	-11.8463
▁ウェストミンスター	-11.8463
東京	-11.8464
▁癖	-11.8466
▁サイエンス	-11.8467
徳	-11.8468
▁私鉄	-11.847
▁経理	-11.847
▁真理	-11.8471
ナショナル	-11.8471
▁内科	-11.8477
▁投げる	-11.8478
▁主語	-11.8479
▁抜き	-11.8483
▁号車	-11.8484
チェ	-11.8484
▁西村	-11.8484
▁マウント	-11.8488
▁オン	-11.8493
文書	-11.8495
▁法名	-11.8498
▁ウェア	-11.8501
▁組み合わせる	-11.8504
▁仮名	-11.8506
ヴィ	-11.8507
▁足し	-11.851
▁パル	-11.8511
Ph	-11.8513
モデル	-11.8513
クロ	-11.8531
▁替わり	-11.8533
▁呼び出	-11.8535
天皇	-11.854
▁クリーン	-11.8541
▁芦	-11.8544
▁於	-11.8544
▁隅	-11.8549
▁細か	-11.8549
▁応え	-11.8553
▁撃沈	-11.8556
▁麻酔	-11.8556
▁追求	-11.8556
▁ゼミ	-11.8556
▁勧告	-11.8556
▁給与	-11.8556
▁貝塚	-11.8556
▁擁護	-11.8556
▁溶解	-11.8556
▁遂行	-11.8557
▁反転	-11.8557
▁貰っ	-11.8557
▁造園	-11.8558
▁防空	-11.8558
▁浅井	-11.8559
▁庶子	-11.8559
▁廃校	-11.856
▁腕前	-11.8561
▁針葉樹	-11.8562
▁琵琶湖	-11.8562
創	-11.8562
▁正則	-11.8563
▁苦しみ	-11.8563
▁尾崎	-11.8564
▁旧姓	-11.8565
▁おもちゃ	-11.8566
▁何となく	-11.8566
帰	-11.8567
▁楼	-11.8568
▁たとえ	-11.8568
▁ジュネーヴ	-11.8568
▁パスワード	-11.8568
▁日産自動車	-11.8568
▁手話	-11.8569
▁生み出す	-11.8569
▁バカ	-11.8569
▁ごめんなさい	-11.857
▁プロット	-11.8571
▁アインシュタイン	-11.8572
▁スターリング	-11.8572
▁周回	-11.8575
▁米子	-11.8577
トラック	-11.8578
▁鞭	-11.8581
相撲	-11.8586
読	-11.8586
▁ほんの	-11.8587
半身	-11.8588
▁成す	-11.8591
▁がん	-11.8592
▁各局	-11.8598
敢	-11.8621
廟	-11.8621
▁けん	-11.8625
▁マイン	-11.8628
載	-11.8632
▁俗	-11.8634
今	-11.8639
フル	-11.864
▁マスコ	-11.8641
▁マニア	-11.8642
ディズニー	-11.8646
潟	-11.865
少年	-11.8654
▁ロン	-11.8655
▁β	-11.8655
▁秩	-11.8663
▁嗣	-11.8663
▁繋	-11.8665
h	-11.8666
▁規範	-11.8667
▁笑顔	-11.8667
レックス	-11.8667
▁増設	-11.8667
▁寄港	-11.8668
▁断片	-11.8668
▁浴場	-11.8668
▁休む	-11.8668
▁頼朝	-11.8668
▁芝生	-11.867
▁発想	-11.867
▁牌	-11.8671
▁呼びかけ	-11.8671
▁事典	-11.8672
▁母艦	-11.8672
▁開店	-11.8672
▁IBM	-11.8673
▁ケルト	-11.8674
▁対局	-11.8674
▁書記官	-11.8674
▁CBS	-11.8674
▁事柄	-11.8675
▁スタンプ	-11.8677
▁テロップ	-11.8677
▁支払う	-11.8677
▁オスカー	-11.8678
▁意味合い	-11.8679
▁オムニバス	-11.8679
▁グラスゴー	-11.8679
▁キャスティング	-11.8682
▁ブエノスアイレス	-11.8683
▁共学	-11.8684
▁渓谷	-11.8685
▁耕	-11.8685
▁PlayStation	-11.8685
▁北アイルランド	-11.8686
▁律	-11.8687
▁吏	-11.8688
▁公会	-11.8689
▁フィン	-11.869
歴	-11.8696
杯	-11.8698
▁シェル	-11.8703
▁晶	-11.8705
▁ランニング	-11.8713
▁ダイビング	-11.8715
▁圏内	-11.8715
▁トリニ	-11.873
詞	-11.873
▁メーター	-11.873
まし	-11.8733
▁道中	-11.8738
ヘルツ	-11.8739
▁景気	-11.874
資	-11.8741
▁本当は	-11.8746
ジャー	-11.8748
▁ラ	-11.8751
よって	-11.8765
▁圭	-11.8767
▁蝶	-11.8767
いす	-11.8771
▁眺め	-11.8773
▁勅	-11.8773
▁内田	-11.8779
▁メカ	-11.8779
▁能登	-11.8779
▁完璧	-11.8779
▁討伐	-11.8779
▁倉敷	-11.8779
▁待遇	-11.8779
▁讃岐	-11.8779
▁貨車	-11.8779
▁雑貨	-11.8779
▁清掃	-11.8779
▁苗字	-11.878
▁受付	-11.878
▁閉館	-11.878
▁鑑定	-11.878
▁伝播	-11.878
▁転任	-11.878
▁授賞	-11.878
▁脱走	-11.8781
▁確	-11.8781
▁広瀬	-11.8781
▁登校	-11.8781
▁刑法	-11.8782
▁知らせ	-11.8782
▁伝送	-11.8782
▁導出	-11.8782
▁密着	-11.8782
▁飛来	-11.8783
▁撮り	-11.8783
▁係り	-11.8783
▁Z	-11.8784
▁直結	-11.8785
▁瑞宝章	-11.8785
▁真言宗	-11.8786
▁飯田	-11.8786
▁室内楽	-11.8786
▁草分け	-11.8786
▁ひまわり	-11.8789
▁県警	-11.8791
▁フォント	-11.8792
▁キャンセル	-11.8792
▁ボローニャ	-11.8792
▁ドレスデン	-11.8792
▁ジャングル	-11.8792
▁スピンオフ	-11.8792
燃	-11.8792
並み	-11.8793
▁テンプレート	-11.8793
▁ユタ	-11.8796
▁ディズニーランド	-11.8797
▁受け取る	-11.8797
▁悲しい	-11.8798
▁一周	-11.8798
▁いこ	-11.8801
▁不動	-11.8801
ブルー	-11.8808
▁ダイエット	-11.881
▁写	-11.8813
▁セイ	-11.8813
▁国務	-11.8815
かり	-11.882
▁長身	-11.8824
ドラマ	-11.8826
伏	-11.8834
恵	-11.8839
▁翅	-11.8844
ネル	-11.8844
糞	-11.8847
ワーズ	-11.8848
介	-11.8848
滑	-11.8848
▁手前	-11.8849
▁数多い	-11.8859
▁かな	-11.8873
▁北上	-11.8874
▁戒	-11.8875
▁斬	-11.8878
週	-11.8879
▁黎	-11.8881
▁胚	-11.8881
▁北野	-11.8881
▁専	-11.8882
▁捧げ	-11.8886
▁修め	-11.8889
あの	-11.8891
▁侯爵	-11.8893
▁頑丈	-11.8893
▁概略	-11.8893
▁警報	-11.8893
▁複素	-11.8893
▁隔週	-11.8893
▁併記	-11.8893
▁却下	-11.8893
▁均一	-11.8893
▁面倒	-11.8893
▁敢行	-11.8893
▁華族	-11.8894
▁助詞	-11.8894
ノル	-11.8894
▁射殺	-11.8894
▁策定	-11.8894
▁響き	-11.8894
▁帝京	-11.8895
▁天神	-11.8895
▁積む	-11.8896
アドル	-11.8896
▁ディス	-11.8898
▁親密	-11.8899
▁非対称	-11.8899
▁制圧	-11.8899
姿	-11.89
▁殺す	-11.89
▁分断	-11.89
▁受け取	-11.8901
▁ハロー	-11.8903
▁プラチナ	-11.8903
▁インテル	-11.8903
▁ネブラスカ	-11.8905
▁マディソン	-11.8905
▁ハル	-11.8906
▁コロン	-11.8906
▁リッチモンド	-11.8907
▁朗	-11.8908
▁カンファレンス	-11.8908
アン	-11.8909
6	-11.8909
▁アレクサンドリア	-11.891
▁閉じる	-11.891
▁味噌	-11.891
▁マニュアル	-11.8914
▁手伝い	-11.892
▁商売	-11.8922
▁缶	-11.8922
県	-11.8924
▁派手	-11.8924
▁喋	-11.8925
▁ディ	-11.8935
サー	-11.8938
▁縞	-11.8942
▁障	-11.8944
▁水車	-11.8949
▁広げる	-11.8959
ワール	-11.8963
▁頂	-11.8964
郡	-11.8965
ったん	-11.8967
▁プロセッサ	-11.8968
▁クラスタリング	-11.8972
▁翔	-11.8973
▁レーン	-11.8982
▁話し合	-11.8982
▁罰	-11.8988
▁人称	-11.899
▁方々	-11.8993
▁幽	-11.8995
旧	-11.9003
▁渋	-11.9003
▁停滞	-11.9008
▁受講	-11.9008
▁遠隔	-11.9008
▁幽霊	-11.9008
▁仲介	-11.9008
▁伯父	-11.9009
▁剣術	-11.9009
▁肥料	-11.9009
▁沼津	-11.9009
▁立案	-11.9009
▁休館	-11.9009
▁士族	-11.9009
▁軍医	-11.901
▁許容	-11.901
▁健一	-11.901
▁水洗	-11.9011
▁神様	-11.9011
▁コラボ	-11.9014
▁狙う	-11.9014
▁暖かい	-11.9014
▁十字架	-11.9014
▁ホップ	-11.9014
▁政務次官	-11.9018
▁招く	-11.902
▁レポーター	-11.902
▁取り出し	-11.902
▁パトリック	-11.9021
▁来場	-11.9021
▁マーガレット	-11.9022
▁ゴールキーパー	-11.9023
▁選曲	-11.9025
▁目安	-11.9027
▁ナイター	-11.9027
▁大工	-11.9028
新聞	-11.903
▁ホルン	-11.9032
▁大司教	-11.9033
▁盛り込	-11.9034
迫	-11.9039
▁MM	-11.9046
▁実数	-11.9055
▁ミルク	-11.906
旬	-11.9072
ジェ	-11.9078
鐵	-11.9078
鰓	-11.9078
▁ドロ	-11.9082
貨	-11.9088
▁インデックス	-11.9109
モア	-11.9109
▁聡	-11.9111
▁晃	-11.9112
▁奏	-11.9123
▁嘱託	-11.9124
▁拷問	-11.9124
▁崩御	-11.9124
▁徴収	-11.9124
▁発刊	-11.9124
▁突撃	-11.9124
▁鋳造	-11.9124
▁受領	-11.9124
▁島田	-11.9124
▁復刻	-11.9124
▁正答	-11.9125
▁定評	-11.9125
▁強烈	-11.9125
▁対談	-11.9125
▁始発	-11.9126
▁車掌	-11.9126
▁頭取	-11.9126
▁花粉	-11.9126
▁摂政	-11.9126
▁移入	-11.9127
▁舎人	-11.9127
▁銀色	-11.9128
▁開園	-11.9129
▁機雷	-11.913
▁グルメ	-11.913
▁III	-11.913
▁美少女	-11.913
▁フック	-11.9131
▁ランナー	-11.9131
▁アーム	-11.9132
▁商学部	-11.9133
▁近づく	-11.9134
▁ホリプロ	-11.9134
▁コンビニ	-11.9134
▁移り住む	-11.9134
▁恐ろしい	-11.9134
▁農学部	-11.9135
▁平定	-11.9135
▁エリート	-11.9135
▁ロジャー	-11.9135
▁景色	-11.9136
▁平等	-11.9136
▁打ち切り	-11.9136
▁マルセイユ	-11.9136
▁マスメディア	-11.9138
▁AFC	-11.9139
▁ニッポン放送	-11.9139
▁大洋ホエールズ	-11.9139
▁クライマックス	-11.9139
▁レバー	-11.914
▁片方	-11.914
▁式部	-11.9143
▁スタック	-11.9143
▁深川	-11.9152
サイ	-11.9152
▁製紙	-11.9154
▁形質	-11.9157
▁秋山	-11.916
▁菩薩	-11.9161
▁弾き	-11.9161
▁総数	-11.9166
玉	-11.9169
▁絶え	-11.9173
隆	-11.9174
▁テレビジョン	-11.9176
▁レート	-11.9179
▁いかに	-11.9184
サンプリング	-11.9196
襄	-11.9196
ミア	-11.9199
▁年月日	-11.92
認	-11.92
公	-11.9201
鯨	-11.9208
▁篇	-11.922
▁悲し	-11.9223
▁か所	-11.9231
ゲル	-11.9232
▁崩れ	-11.9239
▁車輌	-11.9242
▁鳥栖	-11.9242
▁傾倒	-11.9242
▁童話	-11.9242
▁禁煙	-11.9242
▁増築	-11.9242
▁炎症	-11.9242
▁攻勢	-11.9242
▁布告	-11.9242
▁最短	-11.9243
▁遺族	-11.9244
▁怪人	-11.9244
▁火薬	-11.9244
▁碑文	-11.9244
▁弾圧	-11.9245
▁グローブ	-11.9245
▁頭骨	-11.9246
▁離島	-11.9248
▁ギルド	-11.9248
▁デスク	-11.9248
▁ガウス	-11.9248
ーザー	-11.925
▁狂	-11.925
▁東武	-11.925
▁刑部	-11.9251
▁キャロル	-11.9251
▁ギャング	-11.9251
▁引っ越す	-11.9252
▁初旬	-11.9252
▁特例	-11.9252
▁ヘア	-11.9253
▁内大臣	-11.9254
▁仮面	-11.9254
▁オールナイト	-11.9256
▁インフルエンザ	-11.9257
▁レクリエーション	-11.9258
▁コーポレーション	-11.9258
▁寝る	-11.9262
▁船長	-11.9267
▁いまだに	-11.927
すぐ	-11.9273
トニア	-11.9276
為	-11.9277
付か	-11.9278
▁ぼ	-11.928
▁大王	-11.9287
られ	-11.9289
襲	-11.9298
符	-11.9302
▁ポー	-11.9304
▁ケア	-11.9304
▁もら	-11.9305
▁丈	-11.9307
▁人格	-11.9311
▁は種	-11.9312
舘	-11.9315
▁SD	-11.9335
▁割り	-11.9338
▁部類	-11.9339
コミ	-11.934
▁敏	-11.9357
▁挫折	-11.9361
▁誘拐	-11.9361
▁棄却	-11.9361
▁爆破	-11.9361
▁競艇	-11.9361
▁暴走	-11.9361
▁難航	-11.9361
▁友情	-11.9362
転	-11.9362
▁接着	-11.9362
▁銃撃	-11.9362
▁耕作	-11.9362
▁遥か	-11.9363
▁外伝	-11.9363
▁備前	-11.9364
▁屋台	-11.9365
▁降車	-11.9367
▁ゴジラ	-11.9367
▁外装	-11.9368
▁ガンマ	-11.9369
▁グッド	-11.937
▁アッパー	-11.9371
▁ナッシュ	-11.9371
▁リプレイ	-11.9371
▁生年月日	-11.9371
▁ベーシスト	-11.9373
▁キャサリン	-11.9373
▁製法	-11.9373
▁トゥー	-11.9374
▁モーツァルト	-11.9375
▁祖国	-11.9376
▁関西テレビ	-11.9376
▁エンタープライズ	-11.9377
▁高額	-11.9378
▁富田	-11.9379
▁捉える	-11.9382
▁粒	-11.9383
▁バラエティー	-11.9383
▁正月	-11.9387
▁ゲー	-11.9388
▁乗り入れる	-11.9389
▁丸く	-11.9391
▁となり	-11.9395
▁ダイエー	-11.9398
▁前部	-11.9399
▁なくなる	-11.9401
レイ	-11.9401
たい	-11.9403
▁りん	-11.9404
▁回線	-11.9408
▁誘い	-11.9419
▁暇	-11.942
▁OL	-11.9424
▁ボ	-11.9427
▁申	-11.9436
チェスター	-11.9443
▁ケント	-11.9446
▁ラヴ	-11.9448
クウェ	-11.945
穂	-11.9452
▁督	-11.9454
ダンス	-11.9456
ジュラ	-11.946
▁庫	-11.9461
妻	-11.9465
▁わか	-11.9468
▁姪	-11.9469
▁梱	-11.9469
NS	-11.9471
▁苗	-11.9472
▁冷凍	-11.9481
▁啓蒙	-11.9481
▁棄権	-11.9481
▁挑む	-11.9481
▁可決	-11.9481
▁祝福	-11.9482
▁葛飾	-11.9482
▁首脳	-11.9482
▁静脈	-11.9482
▁迫害	-11.9482
▁傑作	-11.9482
▁WW	-11.9482
▁小麦	-11.9482
▁蹴り	-11.9482
▁発砲	-11.9483
▁観覧	-11.9483
▁隙間	-11.9483
▁赤坂	-11.9484
▁聖母	-11.9485
▁雨季	-11.9486
▁新築	-11.9486
▁ふつう	-11.9488
▁レモン	-11.9488
▁勇者	-11.9488
▁グアム	-11.9489
▁オスロ	-11.9489
▁下総	-11.9489
▁アタック	-11.9491
▁プロペラ	-11.9491
▁雇	-11.9491
▁シール	-11.9491
▁気に入	-11.9493
▁ジュース	-11.9493
▁添え	-11.9493
▁パブリック	-11.9493
▁パスポート	-11.9494
▁チ	-11.9494
▁サスペンス	-11.9494
▁オースティン	-11.9495
▁ジュビロ磐田	-11.9495
▁ロッテマリーンズ	-11.9498
▁多発	-11.9499
▁上司	-11.95
▁社会民主党	-11.9501
越し	-11.9503
▁天下	-11.9511
BS	-11.9511
▁ツ	-11.9512
▁それ程	-11.9514
▁カラ	-11.9517
▁城下	-11.9517
孔	-11.952
トリア	-11.9522
還	-11.9523
▁トス	-11.9525
▁山名	-11.9528
▁ピ	-11.9529
▁東名	-11.953
▁区立	-11.9537
関東	-11.9538
▁ヴァージ	-11.9556
蓄	-11.9557
圓	-11.9558
ゲッティ	-11.9558
▁名山	-11.9558
▁別人	-11.9559
赤十字	-11.9559
獄	-11.9561
▁壊	-11.9561
その後	-11.9563
リビア	-11.9564
▁突き	-11.9574
▁極め	-11.9585
▁国名	-11.9594
▁遅	-11.9601
▁激怒	-11.9603
▁破損	-11.9603
▁以北	-11.9603
▁協賛	-11.9603
▁無駄	-11.9603
▁幻想	-11.9603
▁きり	-11.9604
▁粘土	-11.9604
▁久留	-11.9604
▁満ち	-11.9605
▁同窓	-11.9606
▁硬化	-11.9606
▁電通	-11.9606
▁陣屋	-11.9606
▁育児	-11.9606
現在	-11.9609
▁王族	-11.9609
▁松下	-11.9609
▁杖	-11.9609
▁払	-11.9609
▁モナコ	-11.9609
▁浮かぶ	-11.9609
▁職種	-11.9609
▁旧称	-11.961
▁伝来	-11.961
▁だいぶ	-11.961
▁本屋	-11.9611
▁市庁舎	-11.9612
▁アンモニ	-11.9613
▁柏レイソル	-11.9615
▁見込み	-11.9617
▁エレクトーン	-11.9617
▁フィッシャー	-11.9617
▁エクスプレス	-11.9617
▁フランチャイズ	-11.9618
▁韻	-11.9619
▁初夏	-11.9619
▁重なる	-11.962
▁バンダイ	-11.9622
▁刃	-11.9623
▁鉛	-11.9624
▁アーカイブ	-11.9628
▁宮中	-11.9628
▁メモリー	-11.9631
▁メロン	-11.9638
▁狙い	-11.9639
サリー	-11.9639
▁スー	-11.9647
いよ	-11.9648
▁学級	-11.9651
▁市議	-11.9659
▁スコープ	-11.966
▁取り消	-11.9661
▁HMM	-11.9664
ファー	-11.9664
▁一大	-11.9666
▁払い	-11.9669
Q	-11.967
道館	-11.9672
書き	-11.9677
レーニン	-11.9681
▁建つ	-11.9681
ネイ	-11.9682
犬	-11.9682
穏	-11.9692
ふ	-11.9695
硬	-11.9699
リーマン	-11.97
▁MP	-11.9705
▁SS	-11.9707
方面	-11.9707
▁ジ	-11.971
▁鞍	-11.9714
▁ゼ	-11.9714
▁マット	-11.9714
▁とら	-11.972
じて	-11.9721
▁DC	-11.9722
▁稜	-11.9723
▁桐朋	-11.9726
▁孤児	-11.9727
▁破裂	-11.9727
▁官吏	-11.9727
▁完売	-11.9727
▁祭祀	-11.9727
▁メモ	-11.9727
▁与党	-11.9727
▁佐渡	-11.9727
▁旗艦	-11.9727
▁交友	-11.9728
▁自伝	-11.9728
▁遺言	-11.9729
▁土浦	-11.9729
▁苦戦	-11.973
▁王女	-11.973
▁テ	-11.9731
▁ヨット	-11.9733
▁おまけ	-11.9733
▁驚き	-11.9734
▁八幡宮	-11.9734
▁固有値	-11.9734
▁マネー	-11.9735
▁肩書き	-11.9735
▁太政大臣	-11.9736
▁スカート	-11.9737
▁ばらつき	-11.9737
▁チャット	-11.9737
▁勝ち越し	-11.9737
▁取り出す	-11.9737
▁親会社	-11.9738
▁ポップス	-11.9738
▁どおり	-11.9738
▁風味	-11.9739
▁パラドックス	-11.974
▁実例	-11.9742
▁共用	-11.9742
▁中央アジア	-11.9743
▁チャーチ	-11.9744
▁全集	-11.9746
▁テント	-11.9748
▁マクロ	-11.9751
▁年寄	-11.9754
▁南岸	-11.9756
▁曽	-11.9764
▁合わ	-11.9768
▁親しい	-11.9773
▁ヘー	-11.9774
▁煮	-11.9776
▁ホー	-11.9776
▁受け入れる	-11.978
段	-11.9786
貸	-11.9787
全	-11.979
▁のり	-11.9791
ミル	-11.9796
▁稚	-11.9801
舎	-11.9802
ため	-11.9803
ラグア	-11.9806
フューチャー	-11.9806
▁文中	-11.9809
ニカ	-11.9812
▁タイル	-11.9827
▁高島	-11.9831
禁	-11.9832
▁県議	-11.9836
▁リバー	-11.9837
▁勧	-11.9838
▁窯	-11.9839
▁高野	-11.984
シーズン	-11.9847
比	-11.9851
▁補完	-11.9851
▁共著	-11.9852
▁妥当	-11.9852
▁急増	-11.9852
▁吾	-11.9852
▁嶺	-11.9852
▁精霊	-11.9853
▁担任	-11.9853
▁IB	-11.9853
▁弓道	-11.9854
▁PG	-11.9854
▁入港	-11.9854
▁行先	-11.9855
▁政務	-11.9856
▁退場	-11.9857
▁ウルフ	-11.9858
▁歌合戦	-11.9858
▁選べる	-11.9858
▁ハリス	-11.9859
▁没頭	-11.9859
▁称す	-11.986
▁サバンナ	-11.9861
▁呈する	-11.9861
▁取り戻す	-11.9861
▁バラード	-11.9862
▁大原	-11.9862
▁赤ちゃん	-11.9862
▁スパイク	-11.9862
▁失格	-11.9862
▁ライブラリ	-11.9863
▁ウエスタン	-11.9864
▁バーチャル	-11.9864
▁ヴォーカル	-11.9864
▁クリントン	-11.9864
▁知人	-11.9865
▁見かける	-11.9868
▁代理人	-11.9868
▁浴びる	-11.9868
▁アレン	-11.987
エル	-11.9871
リラ	-11.9872
▁止まり	-11.9874
▁追い	-11.9874
▁消える	-11.9876
▁流す	-11.9878
▁暖房	-11.9879
統	-11.9881
▁留まる	-11.9884
▁挟ま	-11.9885
▁SN	-11.9886
▁とどまる	-11.9886
▁カーボ	-11.9889
▁主計	-11.9889
▁にくく	-11.989
首	-11.9891
▁年次	-11.9891
知ら	-11.9894
▁積み	-11.9896
乗り	-11.9897
▁コミュニティー	-11.9902
ッター	-11.9902
▁規	-11.9905
ベルト	-11.9905
行き	-11.9913
▁県連	-11.9914
拓	-11.9916
▁胎	-11.9922
ラント	-11.9922
蔵	-11.9928
▁ライアン	-11.9932
ンソー	-11.9933
ゴラ	-11.9936
ロビー	-11.9943
▁拓	-11.9947
▁一層	-11.9955
戻し	-11.9964
▁鋳	-11.9965
▁懲	-11.9965
▁っぽい	-11.9972
▁爆	-11.9976
▁減衰	-11.9978
▁紡績	-11.9978
▁遊泳	-11.9978
▁縦縞	-11.9978
▁借用	-11.9978
▁乙女	-11.9978
▁青梅	-11.9978
▁債権	-11.9978
▁陶芸	-11.9978
▁随筆	-11.9979
▁彩色	-11.9979
▁シダ	-11.9979
▁魔王	-11.9979
ジェイ	-11.9979
▁入籍	-11.998
▁ドバイ	-11.9981
▁造営	-11.9982
▁新鮮	-11.9982
▁サメ	-11.9984
ビル	-11.9984
▁全盛期	-11.9984
▁事変	-11.9985
▁大丈夫	-11.9985
▁声帯	-11.9985
▁襲う	-11.9986
▁アーカ	-11.9986
▁ホット	-11.9989
▁月頃	-11.999
▁役目	-11.999
▁オセアニア	-11.999
▁ダーウィン	-11.999
▁フォーラム	-11.999
▁記法	-11.9991
▁生き物	-11.9991
▁朝日新聞社	-11.9992
▁コスチューム	-11.9992
▁特進	-11.9993
▁おかしい	-11.9994
ピット	-11.9995
▁覆う	-11.9997
▁藤井	-11.9998
筋	-11.9998
▁メガ	-11.9999
▁定式	-11.9999
▁ベルク	-11.9999
▁並べる	-12.0001
▁作り上げ	-12.0002
▁降りる	-12.0002
狂	-12.0002
▁一色	-12.0003
▁台数	-12.0003
ジオン	-12.0004
▁開ける	-12.0007
げ	-12.0008
▁通用	-12.0011
▁ファイター	-12.0011
▁区切	-12.0019
P	-12.002
▁知れ	-12.0022
フィ	-12.0026
▁礎	-12.0027
▁多々	-12.0028
▁づけ	-12.0033
▁トーン	-12.0039
バファローズ	-12.0049
ベリア	-12.005
暢	-12.0053
▁主教	-12.0057
▁理科	-12.0057
畿	-12.0059
版	-12.0059
ベンチャー	-12.0062
湯	-12.0081
▁フラ	-12.0088
▁紐	-12.0088
▁こっ	-12.0089
▁雀	-12.009
▁桓	-12.0094
▁サイレン	-12.0096
▁壱	-12.0103
▁夭折	-12.0106
▁疲労	-12.0106
▁意匠	-12.0106
▁奪還	-12.0106
▁漁師	-12.0106
▁演義	-12.0106
▁噴水	-12.0107
▁余裕	-12.0107
▁創価	-12.0107
▁リモ	-12.0107
▁ハブ	-12.0107
▁優勢	-12.0107
▁有毒	-12.0108
▁京浜	-12.0108
慶長	-12.0108
▁ヌード	-12.0112
▁公民館	-12.0112
▁国宝	-12.0113
▁帯同	-12.0113
▁NBC	-12.0114
▁バスケ	-12.0116
▁理工学部	-12.0116
▁トピック	-12.0116
▁申し込み	-12.0117
▁梗	-12.0117
▁握	-12.0117
▁丹後	-12.0118
▁ストライキ	-12.0118
▁アンドリュー	-12.012
▁ロングシート	-12.012
▁抱き	-12.0121
▁ジェファーソン	-12.0121
▁デュッセルドルフ	-12.0122
▁ピース	-12.0123
▁親しく	-12.0123
▁ホームラン	-12.0124
▁陥る	-12.0126
▁救う	-12.0126
▁役名	-12.0127
▁丸山	-12.0128
▁同族	-12.0128
▁名手	-12.0129
▁うえ	-12.0129
▁短大	-12.013
九州	-12.0131
▁天王寺	-12.0132
丹	-12.0134
▁カップル	-12.0136
ース	-12.0146
▁入国	-12.0151
▁一変	-12.0153
▁数式	-12.0157
▁ウォル	-12.0157
女子大	-12.0158
ヴァ	-12.0164
▁代用	-12.0165
▁ろう	-12.0165
によって	-12.0165
▁没する	-12.0166
コロンビア	-12.0168
ヒ	-12.0171
▁あき	-12.0173
▁付き合	-12.0175
▁出せ	-12.0183
▁貸し	-12.0184
▁口蓋	-12.0186
▁ボウル	-12.0186
▁あり方	-12.0187
s	-12.0189
バダ	-12.0191
ケ	-12.0198
▁スルー	-12.0198
▁なくし	-12.0221
▁侵	-12.0223
▁考古	-12.0235
▁搬送	-12.0236
▁誘致	-12.0236
▁貯蔵	-12.0236
ATO	-12.0236
▁ミサ	-12.0237
▁洋服	-12.0237
▁陶器	-12.0237
▁往来	-12.0237
▁希少	-12.0237
▁聖歌	-12.0237
▁クマ	-12.0238
▁名簿	-12.0238
▁激化	-12.0238
▁再演	-12.0239
▁宿場	-12.024
▁ヴュル	-12.0242
▁広葉樹	-12.0242
▁コリン	-12.0242
▁うつ病	-12.0242
▁夜明け	-12.0243
▁ビリー	-12.0244
▁佐久間	-12.0244
▁ウマ	-12.0244
▁声門	-12.0246
▁工学科	-12.0246
▁ヨルダン	-12.0246
▁サンデー	-12.0246
▁ゴードン	-12.0246
▁終日	-12.0246
▁乗り出し	-12.0247
▁台頭	-12.0247
▁図形	-12.0248
▁履	-12.0248
▁インテリア	-12.0248
▁ボウリング	-12.0248
▁混ぜ	-12.0249
▁着色	-12.0249
▁ビン	-12.025
▁尾道	-12.0252
▁エンジニアリング	-12.0253
▁うまい	-12.0254
▁ハリー	-12.0256
▁標準時	-12.0262
待	-12.0265
梗	-12.0265
▁愛国	-12.0268
▁玉川	-12.0269
▁怪	-12.027
▁真似	-12.0271
▁いよ	-12.0273
▁リマ	-12.0273
▁アンディ	-12.0274
▁バイグラム	-12.0274
際	-12.0275
顧	-12.0279
ic	-12.0288
▁ゆき	-12.029
秘	-12.0294
k	-12.0296
▁曲名	-12.0301
▁伐	-12.0301
しかし	-12.0304
▁薬品	-12.0308
▁メイ	-12.031
▁大東	-12.031
について	-12.0312
タゴ	-12.0314
▁吹き	-12.0314
▁戻す	-12.0314
▁担い	-12.0315
▁領事	-12.0315
▁蜜	-12.032
▁ツイ	-12.0321
▁転じる	-12.0321
凸	-12.0322
旁	-12.0322
データー	-12.033
モロコ	-12.0332
▁差し	-12.0335
▁不利	-12.0341
▁かかわり	-12.0344
▁でる	-12.0346
▁巨	-12.0347
たら	-12.0348
ペ	-12.035
▁ギ	-12.0351
まで	-12.0352
▁綾	-12.0353
▁悠	-12.0353
▁庇	-12.0355
パンタ	-12.0358
塩	-12.0359
停	-12.0361
▁月曜	-12.0366
▁告示	-12.0367
▁網羅	-12.0368
▁留守	-12.0368
▁預金	-12.0368
▁下痢	-12.0368
▁可変	-12.0369
▁ナチ	-12.037
▁化物	-12.037
▁アクセ	-12.037
▁早速	-12.037
済	-12.037
▁遂	-12.0371
▁評定	-12.0372
▁異母	-12.0372
▁開港	-12.0372
▁イヌ	-12.0373
▁帰宅	-12.0373
▁スズキ	-12.0374
▁改定	-12.0375
▁陽子	-12.0376
案	-12.0376
▁ジョセフ	-12.0377
▁ヒマラヤ	-12.0377
▁節足動物	-12.0377
▁レーサー	-12.0377
▁差し替え	-12.0377
▁フィラー	-12.0377
▁ハンマー	-12.0378
▁シールド	-12.0378
▁全滅	-12.0378
▁興味深い	-12.0378
▁辛い	-12.0379
ーク	-12.038
▁アドバイス	-12.038
▁高まる	-12.038
▁JAPAN	-12.038
▁カレンダー	-12.038
u	-12.0381
▁詩作	-12.0381
▁生母	-12.0381
▁石橋	-12.0382
▁トップクラス	-12.0383
▁シティー	-12.0383
▁マイクロソフト	-12.0383
▁ホームスタジアム	-12.0385
▁教え子	-12.0386
▁裸	-12.0387
BI	-12.0388
▁止まる	-12.0389
▁馬主	-12.0392
▁出兵	-12.0394
▁言い替え	-12.0396
▁ドライ	-12.0396
向き	-12.0399
▁店長	-12.0405
▁ベ	-12.0406
▁弾く	-12.0412
▁元年	-12.0413
▁サンド	-12.0426
▁フリ	-12.0429
▁コンティニュ	-12.043
▁つくっ	-12.0432
▁優れる	-12.0436
シャー	-12.044
準	-12.0442
▁彰	-12.0449
況	-12.0451
合い	-12.0458
▁つら	-12.0461
▁重く	-12.0461
セックス	-12.0463
▁製作所	-12.0464
▁手伝	-12.0467
▁遭	-12.0471
▁脂	-12.048
辞	-12.0481
▁ソニック	-12.0483
▁ラス	-12.0483
▁楠	-12.0488
▁靖	-12.0488
坊	-12.0489
童	-12.0489
忠	-12.0494
▁グ	-12.0495
タイムズ	-12.0496
▁上る	-12.0496
▁淀	-12.0498
組	-12.0499
▁気づ	-12.05
▁衰え	-12.0501
▁到来	-12.0501
▁撃墜	-12.0501
▁転写	-12.0501
▁爆雷	-12.0501
▁紅茶	-12.0501
▁ボケ	-12.0501
▁若狭	-12.0501
▁昇段	-12.0501
▁要衝	-12.0501
▁信託	-12.0501
▁参拝	-12.0501
▁告発	-12.0501
▁呪文	-12.0501
▁志摩	-12.0501
▁常識	-12.0501
▁油絵	-12.0501
▁鳥羽	-12.0502
▁客演	-12.0502
▁停戦	-12.0502
▁補正	-12.0503
▁遠江	-12.0503
ベリー	-12.0504
▁清朝	-12.0505
▁白黒	-12.0506
▁片仮名	-12.0507
▁鳴き声	-12.0507
▁会計士	-12.0508
▁マナー	-12.0508
▁反省	-12.0509
▁頭文字	-12.051
▁花園	-12.051
▁フラワー	-12.0511
▁アミノ酸	-12.0511
▁オオカミ	-12.0511
▁アトリエ	-12.0511
▁農学	-12.0511
▁通行止め	-12.0511
▁よろしく	-12.0511
▁持ち回り	-12.0511
▁天理	-12.0511
▁柔らかく	-12.0512
▁WOWOW	-12.0513
▁エニックス	-12.0513
▁キャッシュ	-12.0513
▁キャンベル	-12.0513
▁築地	-12.0514
▁女子高	-12.0514
▁持ち込み	-12.0514
▁パンフレット	-12.0515
▁抱く	-12.0515
▁アレクサンダー	-12.0516
▁クリストファー	-12.0516
▁合作	-12.0518
▁皿	-12.0518
▁時制	-12.0518
▁コンビニエンスストア	-12.0519
▁つらい	-12.0521
▁音色	-12.0522
▁現われる	-12.0523
▁つっ	-12.0528
▁肢	-12.0528
▁文化放送	-12.0529
▁想い	-12.0529
▁訴える	-12.053
▁時半	-12.0531
▁いまだ	-12.0533
▁島民	-12.0533
▁取り込	-12.0534
▁プラザ	-12.0535
▁学力	-12.0536
▁中南米	-12.0542
▁ドック	-12.0545
▁売る	-12.0555
ホワイト	-12.0557
だっ	-12.0559
▁突き出	-12.0561
中学校	-12.0567
▁萌	-12.0573
▁町立	-12.0582
ょうが	-12.0584
オールド	-12.0584
▁思い出し	-12.0588
▁チーフ	-12.0603
▁かね	-12.0606
合成	-12.0606
紅	-12.0608
▁決	-12.061
▁ろ	-12.061
▁垂	-12.0612
▁害	-12.0612
▁フィ	-12.0614
▁塊	-12.0619
▁洪	-12.0623
▁崔	-12.0623
▁死に	-12.0627
▁詐欺	-12.0636
▁遊戯	-12.0636
▁隕石	-12.0636
▁頓挫	-12.0636
▁ヤギ	-12.0636
▁尋常	-12.0636
▁信玄	-12.0636
▁抑圧	-12.0636
▁邦題	-12.0636
▁封印	-12.0636
▁買わ	-12.0637
▁乾季	-12.0637
▁寸法	-12.0637
▁宮司	-12.0638
▁栄光	-12.0638
▁膨ら	-12.0638
▁着工	-12.0639
▁高槻	-12.0639
▁出陣	-12.064
▁電信	-12.064
▁総括	-12.064
▁試行	-12.0641
▁署長	-12.0642
▁火器	-12.0642
▁とく	-12.0642
▁消す	-12.0642
▁公言	-12.0642
▁めぐり	-12.0642
▁居酒屋	-12.0642
▁左利き	-12.0642
照	-12.0642
▁旗揚げ	-12.0642
▁暴力団	-12.0643
▁商社	-12.0643
▁掘り	-12.0643
▁就学	-12.0643
▁喋る	-12.0643
▁筋肉質	-12.0644
▁革	-12.0644
▁奪う	-12.0644
▁教義	-12.0644
▁サスペン	-12.0644
▁ベテラン	-12.0646
▁ふるさと	-12.0646
▁ドロップ	-12.0646
▁ガーデン	-12.0646
▁読み切り	-12.0646
▁専ら	-12.0646
▁キム	-12.0646
▁西川	-12.0647
▁ブリストル	-12.0648
▁ヘルメット	-12.0648
▁國學院大學	-12.0648
▁再任	-12.0648
▁プラモデル	-12.0649
▁流星	-12.0649
フラ	-12.065
▁大村	-12.065
▁バーミンガム	-12.065
▁段位	-12.0652
▁文字通り	-12.0652
▁ハイキング	-12.0652
▁ソート	-12.0655
▁社会学部	-12.0655
▁開場	-12.0656
▁聞こえる	-12.0659
▁プラント	-12.0661
▁代官	-12.0661
▁感性	-12.0662
▁面会	-12.0664
▁突	-12.0665
▁団長	-12.0666
▁電位	-12.0668
▁支配人	-12.0669
イオ	-12.0673
▁訳語	-12.0677
碑	-12.0681
矢	-12.0692
▁向ける	-12.0696
▁川上	-12.07
楽園	-12.0706
▁桃山	-12.0707
▁討ち	-12.0719
餅	-12.0727
髭	-12.0728
▁カム	-12.073
▁ヘルツ	-12.0739
▁畳	-12.0749
▁素早	-12.075
離	-12.0754
▁累	-12.0759
▁喪	-12.076
▁脊	-12.076
▁坪	-12.076
▁櫓	-12.076
▁鳳	-12.076
辛	-12.0761
神経	-12.0763
▁デル	-12.0768
ロス	-12.0772
▁但馬	-12.0773
▁興奮	-12.0773
▁征伐	-12.0773
▁欠陥	-12.0773
▁牧畜	-12.0773
▁決闘	-12.0773
▁点灯	-12.0774
▁一流	-12.0775
▁斉藤	-12.0776
▁目録	-12.0778
▁進入	-12.0778
▁バッハ	-12.0779
▁王様	-12.0779
▁クック	-12.0779
▁クレア	-12.0779
▁どっか	-12.078
▁定量	-12.0781
▁広め	-12.0781
▁スケッチ	-12.0783
▁DeNA	-12.0783
▁NASA	-12.0783
▁バッファ	-12.0783
▁ミッキー	-12.0783
▁事務次官	-12.0783
▁グラント	-12.0783
種類	-12.0783
▁こだわり	-12.0784
▁作り出す	-12.0784
▁少々	-12.0785
▁省庁	-12.0785
▁テクニック	-12.0785
▁クラッシュ	-12.0785
▁東海岸	-12.0786
▁お気に入り	-12.0786
▁日替わり	-12.0787
▁シンセサイザー	-12.0788
▁入れ替わる	-12.0789
▁総監	-12.079
▁アシスタントコーチ	-12.079
▁溶ける	-12.079
▁またがる	-12.0791
▁日大	-12.0792
▁チャップリン	-12.0798
なら	-12.0799
シャツ	-12.08
▁住まい	-12.0801
▁ミュージアム	-12.0809
▁クス	-12.0809
▁ホームズ	-12.0812
▁賃	-12.0813
▁闘	-12.0817
▁試みる	-12.0825
▁ヘッ	-12.0829
▁内定	-12.0832
▁氏名	-12.0835
▁苦しい	-12.0837
ーヌ	-12.0837
▁EP	-12.0849
▁フレデ	-12.0852
川島	-12.086
ミュージック	-12.0863
▁預	-12.0869
▁ナン	-12.0873
▁コンスタント	-12.0877
小屋	-12.088
舷	-12.0881
コスタ	-12.0882
CA	-12.0891
▁本田	-12.0894
▁ほん	-12.0898
▁下手	-12.0899
▁新生	-12.0901
レーン	-12.0906
▁盲	-12.0909
▁途絶え	-12.0911
▁ベア	-12.0911
▁島嶼	-12.0912
▁矯正	-12.0912
▁老舗	-12.0912
▁模倣	-12.0912
▁添付	-12.0912
▁完封	-12.0912
▁未遂	-12.0912
▁図鑑	-12.0912
▁申告	-12.0912
▁部会	-12.0912
▁憲章	-12.0912
▁以西	-12.0912
▁火葬	-12.0912
▁球技	-12.0912
▁憲兵	-12.0912
▁縦断	-12.0913
▁積載	-12.0913
▁浮世	-12.0913
▁宣教	-12.0913
▁歩む	-12.0913
▁白鳥	-12.0915
▁砲台	-12.0916
▁詠	-12.0916
▁左京	-12.0916
▁失速	-12.0917
▁乗用車	-12.0918
▁画期的	-12.0918
▁CEO	-12.0918
▁促す	-12.0918
▁おかげ	-12.0918
▁近親	-12.0918
▁XML	-12.0918
▁動植物	-12.0918
▁連ね	-12.0918
▁長方形	-12.0918
▁保育園	-12.0918
▁TNA	-12.0919
▁悪影響	-12.092
▁シナ	-12.0921
▁擁する	-12.0921
▁安置	-12.0921
▁魔法使い	-12.0922
▁クリップ	-12.0922
▁グレート	-12.0923
▁コンパイル	-12.0924
▁バックオフ	-12.0925
▁コミカライズ	-12.0926
▁コンポーネン	-12.0926
▁マイクロホン	-12.0926
トレ	-12.0927
▁ロビン	-12.0928
▁パース	-12.0928
▁そこそこ	-12.0928
▁全日	-12.0931
▁操る	-12.0932
▁カニ	-12.0932
▁ネルソン	-12.0932
祭	-12.0933
宝	-12.0933
▁レイアウト	-12.0935
▁フランクリン	-12.0937
▁狩	-12.0939
ソックス	-12.094
▁文化庁	-12.0942
トル	-12.0942
▁御飯	-12.0944
▁旧道	-12.0955
▁浴	-12.0956
識	-12.0957
▁ペーパー	-12.0959
▁もうける	-12.096
▁上空	-12.0961
ミング	-12.0962
▁勝て	-12.0962
▁っ子	-12.0974
ンス	-12.0977
▁たくし	-12.0978
ルス	-12.0986
▁フランシス	-12.0986
▁獄	-12.0992
▁US	-12.0995
▁飼い	-12.0997
カレッジ	-12.1002
▁テリー	-12.1003
▁アス	-12.1006
▁エステ	-12.1008
起こし	-12.101
▁終端	-12.1011
▁水軍	-12.1015
含	-12.102
▁対面	-12.1023
▁書体	-12.1025
ェゴ	-12.103
I	-12.1031
▁錯	-12.1032
▁完	-12.1034
貨物	-12.1039
▁上っ	-12.1039
▁θ	-12.104
▁☆	-12.104
っこ	-12.1041
▁銭	-12.1042
充	-12.1052
▁覚醒	-12.1052
▁提言	-12.1052
▁未完	-12.1052
▁整え	-12.1052
▁水槽	-12.1053
▁模索	-12.1053
▁転属	-12.1053
▁没収	-12.1053
▁御殿	-12.1054
▁照合	-12.1054
▁産む	-12.1055
▁短命	-12.1055
▁筆名	-12.1055
▁権守	-12.1056
▁進撃	-12.1057
シウム	-12.1058
▁披露宴	-12.1058
▁打楽器	-12.1059
▁カイロ	-12.1059
▁BOX	-12.1059
▁テクノ	-12.106
▁占い	-12.106
▁マグネ	-12.106
▁新体操	-12.106
▁アルカリ	-12.106
▁婿	-12.1061
▁工藤	-12.1061
▁風習	-12.1062
▁服用	-12.1062
▁ブレザー	-12.1062
▁固有名詞	-12.1062
▁手掛かり	-12.1063
▁アワード	-12.1063
▁代議員	-12.1064
▁ロマンス	-12.1064
▁ミスター	-12.1065
▁重心	-12.1065
▁シャープ	-12.1065
▁手配	-12.1066
▁祀る	-12.1066
▁リヴァプール	-12.1066
▁駆け	-12.1067
▁チャールストン	-12.1068
▁ブンデスリーガ	-12.1068
▁リール	-12.1069
▁環境省	-12.1073
▁公理	-12.1074
▁づらい	-12.1076
▁繰り広げる	-12.1076
▁子宮	-12.1077
▁向く	-12.1077
▁ニューギニア	-12.1078
▁大雨	-12.1078
▁店員	-12.108
▁ドット	-12.1081
▁馴染み	-12.1082
▁光子	-12.1086
▁運動会	-12.1086
ジラ	-12.1087
ニング	-12.1091
Y	-12.1097
グローブ	-12.11
▁市道	-12.1103
▁作文	-12.1103
佐	-12.1103
▁相方	-12.1103
動物	-12.1104
▁タイガー	-12.1104
▁祥	-12.1106
▁カター	-12.1112
ダイヤモンド	-12.1121
敗	-12.1135
枝	-12.1139
瓦	-12.114
ハンプ	-12.1143
泳ぎ	-12.1149
氾	-12.115
濫	-12.115
虔	-12.115
蚕	-12.115
ブリティッシュ	-12.115
直ぐ	-12.1163
カル	-12.1164
▁潰	-12.1167
▁尺	-12.1181
▁鎌	-12.1182
▁掾	-12.1183
▁隻	-12.1183
▁便宜	-12.1194
▁燃え	-12.1195
▁漱石	-12.1195
▁購読	-12.1195
▁競泳	-12.1195
▁致命	-12.1195
▁ヨガ	-12.1195
▁放浪	-12.1195
▁報復	-12.1195
▁共鳴	-12.1195
▁双対	-12.1196
▁豪族	-12.1196
▁至近	-12.1196
▁Jr	-12.1196
▁香料	-12.1196
▁要領	-12.1197
▁総統	-12.1197
▁発現	-12.1197
▁万博	-12.1197
▁天守	-12.1198
▁税金	-12.1198
▁タコ	-12.1198
▁気球	-12.1198
▁助成	-12.1199
▁気動車	-12.1201
▁ユニ	-12.1201
▁非線形	-12.1202
▁農産物	-12.1202
▁ユーク	-12.1202
▁ハノー	-12.1203
▁架かる	-12.1203
▁炎上	-12.1204
▁ハミルト	-12.1204
▁最速	-12.1205
▁オデッサ	-12.1205
▁ジェーン	-12.1205
▁アトラス	-12.1205
▁生む	-12.1205
▁医院	-12.1206
▁風船	-12.1207
▁ノベライズ	-12.1207
▁モルディブ	-12.1207
▁ブロンクス	-12.1207
▁グライダー	-12.1207
▁小笠原諸島	-12.1208
▁宗家	-12.1208
▁トレイン	-12.1208
▁ジブラルタル	-12.1209
▁プロトタイプ	-12.1209
▁小隊	-12.1209
▁マルクス主義	-12.1209
▁ガイドライン	-12.1209
▁アーキテクチャ	-12.1211
▁文教	-12.1211
タール	-12.1211
▁築く	-12.1211
▁主砲	-12.1212
▁マスコットキャラクター	-12.1214
▁問う	-12.1216
▁貫く	-12.1217
▁外出	-12.1226
▁末子	-12.1227
ざ	-12.1227
▁セミ	-12.1228
歩	-12.1229
▁進軍	-12.123
▁字体	-12.123
▁聖地	-12.1233
▁生れる	-12.1238
▁スクエア	-12.1239
▁出動	-12.124
バックス	-12.1241
▁言い渡	-12.1241
具合	-12.1246
抜け	-12.1247
▁センス	-12.1247
▁現す	-12.1253
▁素数	-12.1255
▁トリック	-12.1261
スコ	-12.1267
へ	-12.1268
博	-12.127
▁キッド	-12.1277
ルダム	-12.128
冪	-12.1295
遽	-12.1295
リッド	-12.1295
▁マラ	-12.1297
▁IP	-12.1301
▁リム	-12.1306
▁漬け	-12.1307
ゲ	-12.1317
▁去り	-12.1321
▁結びつ	-12.1322
▁抑	-12.1324
違い	-12.1326
▁食い	-12.1326
▁謙	-12.1327
▁妥	-12.1327
旗	-12.1333
▁延び	-12.1338
▁舞踏	-12.134
▁換算	-12.134
▁演芸	-12.134
▁皆無	-12.134
▁解読	-12.1341
▁巧み	-12.1341
▁細工	-12.1341
▁賛同	-12.1341
▁ハチ	-12.1342
▁頭蓋	-12.1342
▁疑わ	-12.1342
▁勇気	-12.1342
▁重症	-12.1344
▁保た	-12.1344
▁千歳	-12.1345
▁土岐	-12.1345
▁出掛け	-12.1345
▁宣戦	-12.1345
▁マヤ	-12.1345
▁役柄	-12.1346
▁有志	-12.1346
▁編制	-12.1346
▁曹洞宗	-12.1346
▁軽井沢	-12.1346
▁ズボン	-12.1346
▁ATM	-12.1347
▁宮内庁	-12.1347
▁夏場	-12.1348
▁北道	-12.1349
▁すごい	-12.1349
▁セガ	-12.1349
▁サヨナラ	-12.135
▁聴く	-12.135
▁源氏物語	-12.135
▁矢野	-12.135
▁成城	-12.135
▁度合い	-12.135
▁桜井	-12.135
▁エリック	-12.1351
▁地蔵	-12.1351
▁ブナ	-12.1351
▁カーター	-12.1352
▁インパクト	-12.1352
▁プリンセス	-12.1352
▁モノレール	-12.1352
▁業種	-12.1352
▁報道局	-12.1352
▁枯れ	-12.1353
▁程なく	-12.1353
▁情報処理	-12.1353
カープ	-12.1354
▁モニュメント	-12.1354
▁キール	-12.1354
▁数列	-12.1356
▁迫る	-12.1356
▁YouTuber	-12.1357
▁下さい	-12.1362
▁ネオ	-12.1363
なり	-12.1363
▁倒	-12.1368
▁アール	-12.1369
畔	-12.137
▁田原	-12.1371
▁ないし	-12.1373
▁亡くなり	-12.1374
▁逃れる	-12.1374
メール	-12.1375
▁否	-12.1377
▁金剛	-12.1385
▁チャイルド	-12.1387
砲	-12.1388
▁カナ	-12.1389
低	-12.1395
▁考	-12.1398
観	-12.1406
▁出所	-12.1408
▁汁	-12.141
▁くち	-12.1416
挙	-12.1419
シュート	-12.1421
▁霞	-12.1423
▁プラグ	-12.1431
▁ペル	-12.1435
師	-12.1435
宰	-12.1438
▁カッ	-12.144
▁大西	-12.1444
▁コンペ	-12.1454
ネチ	-12.146
▁興業	-12.1461
▁まあー	-12.1467
▁誓	-12.1471
▁ビート	-12.1472
▁巴	-12.1475
▁祠	-12.1475
▁稔	-12.1475
▁螺	-12.1475
▁諮	-12.1475
▁榊	-12.1475
▁返す	-12.1479
デ	-12.1482
▁パニック	-12.1484
▁泣	-12.1484
▁エール	-12.1484
▁著	-12.1486
られる	-12.1487
▁勧誘	-12.1487
▁常磐	-12.1487
▁消耗	-12.1487
▁増刊	-12.1487
▁続投	-12.1487
▁崇敬	-12.1487
▁横縞	-12.1487
▁探知	-12.1487
▁散策	-12.1488
▁登頂	-12.1488
▁薬師	-12.1488
▁常備	-12.1489
▁接種	-12.1489
▁コカ	-12.1489
▁登り	-12.1489
英	-12.149
▁だら	-12.1491
▁港町	-12.1492
▁可動	-12.1492
▁カスタマ	-12.1492
▁副葬品	-12.1493
▁異母弟	-12.1493
▁どっち	-12.1493
▁核兵器	-12.1493
▁並木	-12.1494
▁説話	-12.1495
▁易く	-12.1495
▁賑わう	-12.1495
▁格付け	-12.1496
▁手作り	-12.1496
▁価	-12.1496
▁デザート	-12.1497
▁LIVE	-12.1497
▁カルロス	-12.1497
▁建て替え	-12.1498
▁イヤ	-12.1498
▁据え	-12.1498
▁増す	-12.1499
▁デフォルト	-12.1499
▁ウェイン	-12.1501
▁ATR	-12.1502
▁党派	-12.1504
r	-12.1505
▁御用	-12.1505
▁催し	-12.1507
▁地下道	-12.1507
▁着物	-12.151
▁邸	-12.151
▁見分け	-12.1511
▁残せ	-12.1514
▁モーリ	-12.1515
KB	-12.152
▁初舞台	-12.1523
▁豊後	-12.1524
▁眠	-12.1527
▁宮内	-12.1527
▁白山	-12.153
▁臼	-12.1531
▁直人	-12.1532
成績	-12.1536
▁分校	-12.154
▁ペルシ	-12.1545
磁	-12.1546
▁長尾	-12.1547
▁望ま	-12.1556
ウ	-12.156
▁フレ	-12.1563
収	-12.1571
まー	-12.1574
▁きれ	-12.1587
▁ウラ	-12.159
’	-12.1591
堰	-12.1591
杜	-12.1591
蝦	-12.1591
霜	-12.1591
av	-12.1593
▁頑	-12.1593
▁演	-12.1594
オープン	-12.16
▁若松	-12.1603
博覧	-12.1606
▁四方	-12.1607
▁妊	-12.161
▁叶	-12.1612
我	-12.1613
▁ボル	-12.1614
▁某	-12.1624
▁酷	-12.1627
▁欠け	-12.1632
▁らい	-12.1632
▁検閲	-12.1636
▁童謡	-12.1636
▁冷涼	-12.1636
▁快適	-12.1636
▁躍進	-12.1636
▁房総	-12.1637
▁決心	-12.1637
▁幸運	-12.1637
▁回廊	-12.1637
▁怪物	-12.1637
▁自転	-12.1637
▁仏像	-12.1638
▁球状	-12.1639
▁コメ	-12.1639
▁連想	-12.1639
▁顔料	-12.1641
▁ゆめ	-12.1641
▁注力	-12.1641
▁掛かり	-12.1641
▁日刊	-12.1641
▁郵政	-12.1642
▁湾曲	-12.1642
▁カヌー	-12.1643
▁合併症	-12.1643
▁発火	-12.1644
▁飛車	-12.1644
▁MBS	-12.1644
▁パンダ	-12.1644
▁テール	-12.1644
▁和音	-12.1644
▁歌声	-12.1645
▁歩み	-12.1646
▁アシスト	-12.1646
▁ベンガル	-12.1646
▁引き揚げ	-12.1646
▁ゴースト	-12.1646
▁ボイラー	-12.1646
▁ターボ	-12.1647
▁アダムズ	-12.1647
▁選任	-12.1648
▁サバイバル	-12.1648
▁ビリヤード	-12.1648
▁ジョーダン	-12.1649
▁リミックス	-12.1649
▁教会堂	-12.1649
▁焼く	-12.1649
▁原文	-12.165
▁アレックス	-12.165
▁アニメーター	-12.1652
▁アイスクリーム	-12.1652
▁クラゲ	-12.1654
▁もう一度	-12.1657
▁警察庁	-12.1658
▁フィル	-12.1661
▁お父	-12.1662
刺	-12.1665
▁居る	-12.1672
▁国造	-12.1677
バージニア	-12.1677
▁見つかる	-12.1678
▁刺し	-12.1679
▁熱い	-12.1689
損	-12.1693
▁シュー	-12.1697
▁バター	-12.1697
奴	-12.1701
田原	-12.1703
▁臭い	-12.1708
スパ	-12.1708
▁ウェ	-12.1711
ソニック	-12.1713
カン	-12.1713
▁ガイア	-12.1715
▁ストア	-12.1717
腸	-12.1723
湊	-12.1735
▁烈	-12.1735
震災	-12.1738
滴	-12.1743
祷	-12.1743
乱	-12.1743
▁アウ	-12.1745
▁新井	-12.1746
▁ネイティブ	-12.1747
ケル	-12.1749
振	-12.1751
▁メ	-12.1763
▁マネ	-12.1764
▁ポリス	-12.1765
▁ブース	-12.1773
▁樋	-12.1775
IA	-12.1776
▁j	-12.1779
数理	-12.178
▁見込	-12.1784
▁莫大	-12.1788
▁剥奪	-12.1788
▁惨敗	-12.1788
▁腐敗	-12.1788
▁隔離	-12.1788
▁吹替	-12.1788
▁遭難	-12.1788
▁奉納	-12.1788
▁害虫	-12.1788
▁納入	-12.1789
▁竜巻	-12.1789
▁仮称	-12.1789
▁一瞬	-12.1789
▁リオ	-12.1789
▁受理	-12.179
▁左腕	-12.179
▁廃盤	-12.179
▁外相	-12.1792
▁アンサ	-12.1792
▁開基	-12.1792
▁打ち切	-12.1793
▁いすゞ	-12.1794
▁マズル	-12.1794
▁白血病	-12.1794
▁当事者	-12.1794
▁湖南	-12.1794
▁乗法	-12.1794
父	-12.1795
▁出張所	-12.1795
ンボ	-12.1796
▁カラス	-12.1797
▁ツッコミ	-12.1797
▁ネクタイ	-12.1797
▁角川書店	-12.1798
▁イエロー	-12.1798
▁バーゼル	-12.1798
▁美しく	-12.1798
学会	-12.1798
▁諸語	-12.1798
▁書き込み	-12.1799
▁ジェノ	-12.1799
▁崩し	-12.1799
▁アルバート	-12.18
▁冷たい	-12.1801
アル	-12.1801
▁ギムナジウム	-12.1802
▁ハプスブルク	-12.1802
▁伸ばす	-12.1802
▁チェンジアップ	-12.1803
▁ニューメキシコ	-12.1803
▁個数	-12.1806
▁ファッションモデル	-12.1806
アフリカ	-12.1808
▁遺作	-12.181
▁切り替える	-12.1814
▁情	-12.1814
▁ミッド	-12.1819
▁群生	-12.1822
▁江川	-12.1823
▁実名	-12.1827
▁ライブラリー	-12.1828
▁ナス	-12.1829
▁小中	-12.1831
f	-12.1834
▁所見	-12.1839
▁谷川	-12.184
▁国教	-12.1844
▁梨	-12.1844
▁白川	-12.1851
▁レディ	-12.1852
メル	-12.1853
▁バリー	-12.1853
▁三原	-12.1863
▁タジ	-12.1868
ンド	-12.1878
▁瀬戸	-12.188
▁五島	-12.188
▁コウモリ	-12.1882
ユ	-12.1883
早く	-12.1886
▁区長	-12.1887
槻	-12.1893
▁幾ら	-12.1895
シナ海	-12.1895
煉	-12.1897
腿	-12.1897
荊	-12.1897
▁珠	-12.19
▁ねじ	-12.1902
▁パイ	-12.1904
重なる	-12.1907
▁葺	-12.1909
▁バファローズ	-12.1911
ンフレッ	-12.1916
リフ	-12.1916
▁大石	-12.1918
▁x	-12.1919
さま	-12.1922
▁うけ	-12.1927
▁大江	-12.1927
▁杭	-12.1929
▁租	-12.1929
▁妨げ	-12.1935
▁停留	-12.1941
▁帽	-12.1941
▁動揺	-12.1941
▁拡充	-12.1941
▁掘削	-12.1941
▁撤廃	-12.1941
▁棲息	-12.1941
▁疑惑	-12.1941
▁叙勲	-12.1941
▁使徒	-12.1942
▁励む	-12.1942
▁加茂	-12.1942
▁秀樹	-12.1942
▁男優	-12.1942
▁養女	-12.1942
▁俳人	-12.1942
▁遊具	-12.1942
▁従兄	-12.1943
▁甲状	-12.1945
ナル	-12.1945
▁恒例	-12.1945
ゾ	-12.1946
▁曾祖父	-12.1948
▁ROM	-12.1948
▁ワゴン	-12.1948
▁コイル	-12.1949
▁優しく	-12.1949
▁中性子	-12.1949
▁教職員	-12.195
▁値する	-12.195
▁自覚	-12.195
▁飲み物	-12.195
▁結党	-12.1951
▁処方	-12.1951
▁生化学	-12.1951
▁ただちに	-12.1951
▁オーロラ	-12.1951
▁カタカナ	-12.1951
▁ショパン	-12.1951
▁ジョニー	-12.1951
▁量子力学	-12.1951
▁大沢	-12.1951
▁立ち並ぶ	-12.1951
▁咲かせる	-12.1951
▁ブルペン	-12.1952
▁リベラル	-12.1952
▁立ち入り	-12.1952
▁武官	-12.1952
▁きん	-12.1953
▁ゴルファー	-12.1954
▁リハーサル	-12.1954
▁エンブレム	-12.1954
▁ウォーカー	-12.1954
▁レディース	-12.1954
▁ファイブ	-12.1954
▁亡くす	-12.1955
▁ザルツブルク	-12.1955
▁美作	-12.1956
らか	-12.1957
▁ローマ字	-12.1957
▁ライトアップ	-12.1957
▁キャッチフレーズ	-12.1958
▁大祭	-12.1959
▁海南	-12.1959
▁引き受け	-12.1959
▁絞り	-12.196
▁見かけ	-12.196
▁名跡	-12.1961
▁体温	-12.1962
ルート	-12.1963
▁漢方	-12.1964
▁大洋	-12.1965
▁御所	-12.1966
▁入線	-12.1968
▁エイト	-12.1971
▁ハット	-12.1973
▁並み	-12.198
▁アントニオ	-12.198
▁家柄	-12.1983
▁掴	-12.1984
▁元号	-12.1987
▁フィルタ	-12.1992
▁本家	-12.1995
▁虚	-12.1997
▁錬	-12.1999
▁初版	-12.2001
▁ケイン	-12.2003
▁任せ	-12.2004
▁LD	-12.2005
▁マザー	-12.202
謀	-12.2041
▁インストー	-12.2049
貌	-12.205
叉	-12.2053
渕	-12.2053
礫	-12.2053
閑	-12.2053
▁名家	-12.2063
▁フィジ	-12.2074
ライン	-12.2076
リアン	-12.2077
▁レンジ	-12.2081
▁汎	-12.2084
▁壬	-12.2085
▁カス	-12.2087
闇	-12.2092
図書館	-12.2094
▁r	-12.2095
▁掌握	-12.2098
▁禁忌	-12.2098
▁承諾	-12.2098
▁駆使	-12.2098
▁募金	-12.2098
▁宴会	-12.2098
▁投獄	-12.2098
▁養育	-12.2098
▁牧草	-12.2098
▁渡航	-12.2098
▁移設	-12.2098
▁巨星	-12.2098
▁失礼	-12.2099
▁分担	-12.2099
▁庶流	-12.2099
▁船首	-12.2099
▁MV	-12.2099
▁平滑	-12.21
▁帰港	-12.21
ケーション	-12.2101
ニュ	-12.2101
▁問屋	-12.2101
▁劣る	-12.2103
▁失望	-12.2103
▁症例	-12.2103
▁副詞	-12.2103
▁巡業	-12.2103
▁コナミ	-12.2104
▁由紀夫	-12.2104
▁終着駅	-12.2104
▁ペダル	-12.2104
▁面影	-12.2104
▁男役	-12.2104
▁ハーブ	-12.2105
▁ヒント	-12.2106
▁下士官	-12.2106
▁短所	-12.2106
▁商法	-12.2106
▁複素数	-12.2106
▁十字軍	-12.2107
▁オアシス	-12.2107
▁ミネラル	-12.2108
▁シャワー	-12.2108
▁林道	-12.2108
▁アーベル	-12.2108
▁カセット	-12.2108
▁パーカー	-12.2109
▁オホーツク	-12.211
▁キン肉マン	-12.211
▁ポーツマス	-12.211
▁エスパルス	-12.211
▁ベルマーレ	-12.211
▁キロヘルツ	-12.211
▁俳優座	-12.2111
▁末尾	-12.2111
▁愛用	-12.2114
▁フィリップス	-12.2114
▁バスケット	-12.2115
▁インストゥルメンタル	-12.2115
▁執る	-12.2116
▁ビクターエンタテインメント	-12.2117
▁一転	-12.2118
▁幌	-12.2119
▁辞める	-12.212
▁ウォーク	-12.2122
▁美し	-12.2123
▁赤み	-12.2124
グラム	-12.2124
▁SM	-12.2127
▁夢中	-12.2129
乗	-12.2129
細	-12.2134
▁序列	-12.2135
▁アップル	-12.2139
▁全勝	-12.2145
▁リーガー	-12.2145
▁含み	-12.2146
ぶ	-12.2153
▁旧名	-12.2155
▁汗	-12.2156
▁新党	-12.216
▁オリエン	-12.2162
着陸	-12.2165
▁直す	-12.2167
▁気付	-12.2173
共	-12.2176
▁媒	-12.2177
ぶり	-12.2179
により	-12.218
あり	-12.218
墓	-12.2181
▁国分	-12.2186
▁新川	-12.2187
▁ドール	-12.2187
マック	-12.2188
フットボール	-12.2207
つき	-12.2209
▁有り	-12.2211
弊	-12.2212
タム	-12.2214
▁探	-12.2217
分かれ	-12.222
ぬ	-12.2238
ズス	-12.224
指	-12.2242
▁亨	-12.2244
▁ニック	-12.2254
▁木曜	-12.2255
▁急逝	-12.2256
▁刷新	-12.2256
▁返答	-12.2256
▁終始	-12.2256
▁吾妻	-12.2256
▁接収	-12.2256
▁廃絶	-12.2257
▁肩書	-12.2257
▁貝殻	-12.2257
▁解禁	-12.2257
▁祭礼	-12.2258
▁段丘	-12.2258
▁王冠	-12.2259
▁配役	-12.226
▁リチ	-12.226
▁下さ	-12.2261
▁温室	-12.2261
▁吹く	-12.2261
▁図柄	-12.2262
▁六本木	-12.2263
▁スタ	-12.2263
▁弾正	-12.2263
▁唄	-12.2263
▁岩崎	-12.2264
▁納め	-12.2264
▁印象派	-12.2264
▁馬術	-12.2265
▁旅客機	-12.2266
▁ドラッグ	-12.2266
▁まちまち	-12.2266
▁ペナルティ	-12.2266
▁あらわす	-12.2267
北海道	-12.2267
▁語句	-12.2268
強	-12.2268
▁ギャンブル	-12.2269
▁バイオリン	-12.2269
▁地雷	-12.2269
裕	-12.227
▁行進	-12.227
▁知り合う	-12.227
▁ノックアウト	-12.227
▁フライヤーズ	-12.227
▁面白く	-12.2272
▁ポールポジション	-12.2273
顔	-12.2274
▁グリーンランド	-12.2274
▁ムーン	-12.2275
▁スキン	-12.2275
▁極性	-12.2275
▁武藤	-12.2276
▁いらっしゃる	-12.2276
▁トライグラム	-12.2279
▁八郎	-12.228
遠	-12.2281
▁河原	-12.2283
▁バックス	-12.2283
▁キティ	-12.2284
▁クラウン	-12.2287
▁MRI	-12.2287
▁単線	-12.229
▁信じる	-12.229
▁王政	-12.2291
活動	-12.2292
▁蒙	-12.2293
▁三塁	-12.2294
▁本能	-12.2309
▁騒ぎ	-12.231
蒸	-12.2312
第	-12.2313
▁ヤク	-12.2319
分子	-12.233
▁覚	-12.2346
ェ	-12.2349
動力	-12.2354
▁独り	-12.2354
縛	-12.2358
ジャパン	-12.2365
豪	-12.2372
柵	-12.2373
ミナ	-12.2375
▁キリ	-12.2378
芸術大学	-12.2379
アトル	-12.2381
ナウ	-12.2383
▁事後	-12.2388
▁GMM	-12.2389
わたっ	-12.239
▁いたる	-12.2391
去	-12.2396
鏡	-12.2401
▁磐	-12.2402
▁壺	-12.2405
▁襟	-12.2405
▁鎧	-12.2405
コー	-12.2405
ッジ	-12.2405
カルト	-12.2406
▁ドラ	-12.2409
▁ひど	-12.241
▁成年	-12.2412
▁滅ぼ	-12.2416
▁批准	-12.2417
▁沈黙	-12.2417
▁抜群	-12.2417
▁怪談	-12.2418
▁概説	-12.2418
▁変貌	-12.2418
▁常駐	-12.2418
▁欠番	-12.2418
▁荘園	-12.2418
▁休息	-12.2419
▁偏差	-12.2419
▁入幕	-12.2419
▁指輪	-12.2419
▁銅像	-12.2419
▁補足	-12.2419
▁臨む	-12.242
▁落成	-12.242
▁割愛	-12.242
▁城郭	-12.242
▁移送	-12.2421
▁荒木	-12.2421
▁OEM	-12.2424
▁例祭	-12.2424
▁モリス	-12.2424
▁だらけ	-12.2424
▁別称	-12.2425
▁売り場	-12.2426
できる	-12.2426
▁ホース	-12.2426
▁谷口	-12.2426
▁スペック	-12.2427
▁婆ちゃん	-12.2427
▁HTML	-12.2427
▁オンエア	-12.2427
▁修学旅行	-12.2427
▁サミット	-12.2427
▁ウォール	-12.2427
▁モンタナ	-12.2427
▁コロンボ	-12.2428
▁クリック	-12.2428
▁振る舞い	-12.2428
▁重役	-12.2428
▁百科	-12.2428
▁ジェームス	-12.243
▁出かけ	-12.243
▁チン	-12.2431
▁法務省	-12.2431
▁不定	-12.2431
▁プライバシー	-12.2432
▁仮に	-12.2432
▁ノルマンディー	-12.2433
▁間に合	-12.2433
▁チェル	-12.2434
▁酷い	-12.2435
駒	-12.2435
▁フラット	-12.2436
輸	-12.2437
▁覆面	-12.2438
▁下げる	-12.2438
▁私服	-12.2438
▁称え	-12.2438
▁口語	-12.2439
▁変性	-12.244
▁ユーモア	-12.244
▁筋力	-12.244
▁直行	-12.2441
対し	-12.2442
夫	-12.2443
市立	-12.2445
▁乗り込	-12.2447
▁原生	-12.2449
▁サト	-12.2453
▁所沢	-12.2464
頭部	-12.2466
▁早川	-12.2471
▁体質	-12.2472
▁ぐるみ	-12.2473
和田	-12.2476
▁大火	-12.248
▁両立	-12.2481
▁兵隊	-12.2482
▁ナ	-12.2486
▁込み	-12.2487
農業	-12.2489
▁宜	-12.249
▁賀	-12.2492
▁果て	-12.2499
▁南下	-12.2501
採	-12.2505
笑	-12.2511
▁イブ	-12.2513
剰	-12.2514
▁札	-12.2516
巧	-12.2517
▁見習	-12.2518
汝	-12.2537
腋	-12.2537
逓	-12.2537
et	-12.2537
li	-12.2537
フィス	-12.2538
▁文体	-12.2555
▁悩	-12.2556
▁試し	-12.2556
東海	-12.2557
性能	-12.2562
嵐	-12.2568
▁高ま	-12.2568
▁脆	-12.2569
▁冥	-12.2569
▁罠	-12.2569
▁甚	-12.2569
替え	-12.2571
▁踏ん	-12.2576
▁釈迦	-12.2581
▁幕僚	-12.2581
▁衰弱	-12.2581
▁邪魔	-12.2581
▁了承	-12.2581
▁提起	-12.2581
▁顕彰	-12.2581
▁獣医	-12.2581
▁我慢	-12.2581
▁諸侯	-12.2581
▁ナノ	-12.2581
▁横綱	-12.2582
▁駆除	-12.2582
▁稼動	-12.2582
▁永住	-12.2582
▁石灰	-12.2582
▁ユリ	-12.2582
▁結束	-12.2582
▁棋戦	-12.2582
▁検知	-12.2582
▁散布	-12.2582
▁飛鳥	-12.2583
▁叙任	-12.2583
▁工具	-12.2583
▁亜紀	-12.2583
▁隼人	-12.2583
▁散在	-12.2584
▁自慢	-12.2584
▁原題	-12.2584
▁パナ	-12.2584
▁紀元	-12.2585
▁隠す	-12.2586
▁等式	-12.2586
▁短調	-12.2587
▁ノック	-12.2587
▁帰着	-12.2588
▁NSC	-12.2588
▁バッジ	-12.2588
▁バビロ	-12.2588
▁祝う	-12.2588
▁リンパ	-12.2588
▁染め	-12.2589
▁ノルム	-12.2589
▁番付	-12.259
▁カレン	-12.259
▁ハーレム	-12.2591
▁マフィア	-12.2591
▁バチカン	-12.2591
▁ペルシャ	-12.2591
▁ダイアナ	-12.2591
▁右派	-12.2592
▁識	-12.2592
▁賜	-12.2592
▁ヒューズ	-12.2592
▁松岡	-12.2592
▁振り付け	-12.2592
▁加速度	-12.2593
▁裾	-12.2594
▁スクラップ	-12.2594
▁マッサージ	-12.2594
▁メソジスト	-12.2594
▁前方後円墳	-12.2594
▁ウォーレン	-12.2594
▁エキストラ	-12.2594
▁アンコール	-12.2594
▁平屋	-12.2594
▁豆腐	-12.2594
それ	-12.2594
▁ニッ	-12.2595
▁返事	-12.2595
▁トロンボーン	-12.2595
▁美学	-12.2596
▁ライフル	-12.2596
▁コンプレックス	-12.2597
▁ストラスブール	-12.2597
▁生き残り	-12.2597
▁西太平洋	-12.2597
▁全国ネット	-12.2598
▁コンテキスト	-12.2598
▁ニューイングランド	-12.2599
▁ソフトバンクホークス	-12.2599
▁読み方	-12.26
▁取り立て	-12.2601
▁王宮	-12.2603
▁グア	-12.2606
ブライ	-12.2608
▁代わる	-12.2608
▁ハイム	-12.2614
▁ボディー	-12.2615
▁回生	-12.2617
▁シュ	-12.2621
▁減る	-12.2623
▁藤本	-12.2631
革	-12.2635
▁拾	-12.264
▁荻	-12.2643
▁ステン	-12.2644
▁大木	-12.2646
▁司る	-12.2652
▁リック	-12.2661
▁言わば	-12.2663
荘	-12.2666
▁犯し	-12.267
ーレン	-12.2674
▁スリ	-12.2675
周	-12.2675
▁限る	-12.2681
須賀	-12.2684
奪	-12.2687
▁算	-12.2697
維	-12.2702
▁きっ	-12.2703
祇	-12.2704
ベルデ	-12.2704
▁無くな	-12.271
▁先立	-12.2711
▁股	-12.2712
▁ダル	-12.2717
BO	-12.2721
ティー	-12.273
キング	-12.273
▁傅	-12.2735
▁叢	-12.2735
▁濱	-12.2735
▁膠	-12.2735
▁邑	-12.2735
▁頬	-12.2735
▁有田	-12.2741
▁拉致	-12.2748
▁迅速	-12.2748
▁繊細	-12.2748
▁宰相	-12.2748
▁収監	-12.2748
▁提督	-12.2748
▁室蘭	-12.2748
▁変革	-12.2748
▁暴行	-12.2748
▁侵食	-12.2748
▁保留	-12.2749
▁宇多	-12.275
▁祭典	-12.2751
▁共存	-12.2751
▁服役	-12.2751
▁望み	-12.2753
▁岩波	-12.2754
▁iOS	-12.2754
▁集結	-12.2754
▁水晶	-12.2754
▁秋葉原	-12.2755
▁和光	-12.2755
▁バトン	-12.2755
▁アウトドア	-12.2757
▁クーパー	-12.2758
▁ニンニク	-12.2758
▁レジュメ	-12.2758
▁紫綬褒章	-12.2758
▁追い詰め	-12.2758
▁トリガー	-12.2758
▁突然変異	-12.2758
▁ウェスト	-12.2758
▁そっくり	-12.2758
▁書き換え	-12.2758
▁富士見	-12.2759
▁名付け親	-12.2759
▁見通し	-12.2759
▁ストリーム	-12.276
▁トンプソン	-12.276
▁コンバート	-12.276
▁ボーイング	-12.276
▁クリニック	-12.276
▁描画	-12.2761
▁日本棋院	-12.2761
▁ダイナミック	-12.2762
▁アンソロジー	-12.2762
▁パイプライン	-12.2762
▁異議	-12.2763
▁インタフェース	-12.2763
▁ホワイトハウス	-12.2764
蘇	-12.2764
▁フリーライター	-12.2764
▁ガソリンスタンド	-12.2764
▁減り	-12.2765
▁代役	-12.2766
▁メソッド	-12.2771
▁笛	-12.2773
▁水害	-12.2774
▁球体	-12.2775
ニングラ	-12.2776
▁荒れ	-12.2779
▁倣	-12.278
▁主幹	-12.2783
▁分光	-12.2783
ネガ	-12.2783
▁作れる	-12.2785
▁シャツ	-12.2785
▁大関	-12.2786
▁暖	-12.2787
▁グロ	-12.279
粒子	-12.279
▁行え	-12.279
レオ	-12.2792
衛	-12.2794
麻	-12.2797
▁リク	-12.2797
早川	-12.2799
▁マツ	-12.2799
▁折れ	-12.28
▁吊り	-12.28
ノ	-12.2801
OC	-12.2801
ジンバ	-12.2801
ビー	-12.2809
大陸	-12.281
▁ないしは	-12.2819
▁ぽ	-12.2822
▁留め	-12.2836
▁ハム	-12.2837
▁村人	-12.2843
▁表れ	-12.2844
よる	-12.2844
▁初級	-12.2855
▁鯨	-12.2856
▁飛び込	-12.2858
▁眠り	-12.2868
▁ビ	-12.287
喘	-12.2873
狗	-12.2873
bo	-12.2873
たり	-12.2874
ブエ	-12.2874
▁いろ	-12.288
V	-12.2884
ごく	-12.2894
▁よっ	-12.2898
▁賭	-12.2898
▁綴	-12.2898
▁机	-12.2905
▁爾	-12.2905
▁萬	-12.2905
大阪	-12.2908
▁溢れ	-12.2911
カオ	-12.2916
▁城址	-12.2917
▁妄想	-12.2917
▁占拠	-12.2917
▁鍛冶	-12.2917
▁鐘楼	-12.2917
▁融資	-12.2917
▁禁酒	-12.2917
▁罰則	-12.2918
▁投じ	-12.2918
▁灘	-12.2918
▁官邸	-12.2918
▁速球	-12.2918
▁豪雨	-12.2918
▁戸籍	-12.2918
▁付録	-12.2918
▁使節	-12.2919
▁援	-12.2919
▁政令	-12.2919
▁浸水	-12.2919
OK	-12.292
▁精通	-12.292
▁蒸発	-12.292
▁税率	-12.2921
▁付け加え	-12.2922
▁熟す	-12.2922
▁倍率	-12.2922
▁失明	-12.2923
▁久米	-12.2923
▁製薬	-12.2923
▁ゾンビ	-12.2923
▁タモリ	-12.2923
▁万葉集	-12.2923
▁神父	-12.2925
▁物凄く	-12.2925
▁呈	-12.2927
▁グスタフ	-12.2927
▁フラッグ	-12.2927
▁ボルドー	-12.2927
▁ライデン	-12.2927
▁ニコライ	-12.2927
▁兼ね備え	-12.2927
▁おはよう	-12.2927
▁サイモン	-12.2927
▁リセット	-12.2928
▁繰り出す	-12.2928
▁単葉	-12.2929
▁滅	-12.2929
▁ギルバート	-12.293
▁阿弥陀如来	-12.293
▁浦和レッズ	-12.293
▁トリニータ	-12.293
▁シャッター	-12.293
▁サントリー	-12.293
▁問い合わせ	-12.293
▁池上	-12.2931
▁製材	-12.2931
▁ランカスター	-12.2931
▁ハイスクール	-12.2932
▁テーマパーク	-12.2932
▁水球	-12.2933
▁語順	-12.2933
▁ペリー	-12.2934
▁結社	-12.2934
▁ブランデンブルク	-12.2934
▁マンガン	-12.2934
▁手間	-12.2935
▁マクラ	-12.2938
▁石材	-12.294
▁下が	-12.2945
▁泣き	-12.2947
ピン	-12.2947
▁うま	-12.295
▁コーダ	-12.2951
▁PSP	-12.2951
▁連なる	-12.2954
▁フォーカス	-12.2957
ベ	-12.2959
▁名作	-12.2961
▁シル	-12.2972
▁トレ	-12.2974
▁撃	-12.2975
▁乱れ	-12.2976
▁シスコ	-12.2977
▁役立	-12.2977
艦	-12.2977
▁BM	-12.2988
EMI	-12.2992
▁小路	-12.2999
▁ウィ	-12.3002
▁タイムズ	-12.3004
掌	-12.3008
居	-12.3009
▁ネル	-12.3025
▁揮	-12.3027
▁ぎ	-12.3029
▁エド	-12.3035
▁書房	-12.3042
▁バッグ	-12.3044
▁大成	-12.3045
邱	-12.3046
ベータ	-12.3047
▁家政	-12.3049
▁ダイ	-12.3049
▁下る	-12.3068
▁湧	-12.3069
▁ぃ	-12.3072
▁烏	-12.3075
▁佳	-12.3076
▁矩	-12.3077
▁枯	-12.3077
▁榎	-12.3077
▁絆	-12.3077
▁冗	-12.3077
▁国共	-12.3078
条件	-12.3079
プト	-12.3081
▁におい	-12.3082
▁碁	-12.3084
▁カーン	-12.3085
▁掲示	-12.3089
▁飢饉	-12.309
▁散逸	-12.309
▁消毒	-12.309
▁受注	-12.309
▁均等	-12.309
▁亡	-12.309
▁吐く	-12.309
▁冷静	-12.309
▁理工	-12.309
▁塗料	-12.3091
▁貝類	-12.3091
▁交替	-12.3091
▁防具	-12.3091
▁足首	-12.3091
没	-12.3092
▁叩く	-12.3092
▁生還	-12.3093
▁別居	-12.3093
▁従弟	-12.3093
▁吉岡	-12.3093
▁大胆	-12.3095
▁フォト	-12.3095
▁外洋	-12.3096
▁RAW	-12.3096
▁灰白色	-12.3096
▁大気圏	-12.3096
▁河川敷	-12.3096
▁タンパ	-12.3096
▁教習所	-12.3096
▁寄生虫	-12.3096
▁メーン	-12.3097
▁疎	-12.3098
▁長兄	-12.3098
▁制球	-12.3098
陣	-12.3098
▁テヘラン	-12.3099
▁拓殖大学	-12.3099
▁ピエール	-12.3099
▁万能	-12.31
▁ふたたび	-12.31
▁呪い	-12.31
▁Linux	-12.3102
▁リサイタル	-12.3102
▁物価	-12.3102
▁ロビンソン	-12.3102
▁ハーバード	-12.3102
▁カーニバル	-12.3102
したら	-12.3102
▁東シナ海	-12.3103
▁苦しめ	-12.3103
▁ふたつ	-12.3103
▁ウォーキング	-12.3104
▁ストライカー	-12.3104
▁バイリンガル	-12.3104
▁ピックアップ	-12.3104
▁出願	-12.3104
▁ソフトテニス	-12.3104
▁ようや	-12.3104
▁デート	-12.3104
▁ベートーヴェン	-12.3105
▁ホーリーホック	-12.3105
▁によりまして	-12.3108
▁アルト	-12.3108
▁書け	-12.3109
テンド	-12.311
▁目覚める	-12.311
▁スムー	-12.3111
▁コレ	-12.3111
▁立た	-12.3111
▁海流	-12.3115
▁石見	-12.3121
▁村社	-12.3124
▁ボルト	-12.3125
▁永田	-12.3127
▁全額	-12.3128
▁他者	-12.313
▁法規	-12.313
▁宙	-12.313
▁長け	-12.3137
▁樽	-12.3138
R	-12.3138
▁対人	-12.3138
▁婚	-12.3141
▁ネー	-12.3142
WC	-12.3153
テスト	-12.3154
▁噴	-12.3157
▁ソル	-12.316
じめ	-12.3161
▁張る	-12.3164
▁最大手	-12.3164
ハラ	-12.3164
詩	-12.3169
▁島原	-12.3173
▁長め	-12.3178
▁RC	-12.318
▁挙が	-12.3189
▁大平	-12.3191
▁OP	-12.3194
パ	-12.3197
▁モス	-12.3199
メイソン	-12.32
致	-12.3202
リン	-12.3207
奈	-12.3217
▁ヴァン	-12.3217
藝	-12.3219
ma	-12.3221
zon	-12.3221
疇	-12.3221
▁落ち込	-12.3221
ファミコン	-12.3223
レーション	-12.3226
▁問い	-12.3228
▁重なり	-12.3241
▁飽	-12.3242
▁NC	-12.3248
▁隼	-12.325
▁引き渡	-12.3251
▁エミー	-12.3251
▁斧	-12.3253
▁肋	-12.3253
▁孟	-12.3253
▁貸し出	-12.3257
▁傭兵	-12.3265
▁後裔	-12.3265
▁曰く	-12.3265
▁生誕	-12.3265
▁贈呈	-12.3265
▁転倒	-12.3265
▁由緒	-12.3265
▁綾瀬	-12.3265
▁温厚	-12.3265
▁指針	-12.3265
▁肥満	-12.3265
▁頻発	-12.3265
▁敏感	-12.3265
▁電灯	-12.3265
▁俗称	-12.3265
▁生き延び	-12.3265
▁翁	-12.3266
▁解離	-12.3266
▁邦訳	-12.3266
▁退去	-12.3266
▁欠席	-12.3266
▁送迎	-12.3266
▁明智	-12.3266
▁警部	-12.3267
▁保養	-12.3267
▁随一	-12.3267
▁治虫	-12.3267
▁信夫	-12.3267
▁強肩	-12.3267
▁改題	-12.3268
▁微小	-12.3268
▁助役	-12.3268
▁配当	-12.3268
▁女房	-12.3269
▁海老	-12.3269
▁IV	-12.3269
▁佐久	-12.3269
▁手首	-12.3269
▁宝物	-12.327
▁消防署	-12.3271
▁切り離	-12.3271
▁純一	-12.3272
▁ガボン	-12.3272
▁親しむ	-12.3272
▁強風	-12.3272
▁天皇杯	-12.3272
▁コモ	-12.3273
▁新居	-12.3273
▁最低限	-12.3273
▁新潮	-12.3274
▁RNA	-12.3274
▁手当	-12.3274
▁神楽	-12.3274
▁シャルル	-12.3275
▁サーカス	-12.3275
▁モルダー	-12.3275
▁ルーカス	-12.3275
▁フルーツ	-12.3275
▁引き継ぐ	-12.3275
▁エアロ	-12.3277
▁シリンダー	-12.3277
▁ビスマルク	-12.3277
▁ファックス	-12.3277
▁ヒューマン	-12.3278
▁フェンシング	-12.3279
▁ボーカリスト	-12.3279
▁ステアリング	-12.3279
▁立ち上が	-12.328
▁反動	-12.328
▁北山	-12.328
▁アルペンスキー	-12.328
▁イコール	-12.3282
▁法華	-12.3282
▁インディアナポリス	-12.3282
▁リサーチ	-12.3284
ンドラ	-12.3285
▁いただける	-12.3286
▁s	-12.3287
▁異名	-12.3287
▁ホーン	-12.3287
▁昨日	-12.3287
▁藤村	-12.3289
▁トラップ	-12.329
▁コンタクト	-12.3291
弟	-12.3291
▁総社	-12.3294
▁a	-12.3295
▁対生	-12.3295
上がっ	-12.3296
▁要人	-12.3299
▁地味	-12.3302
▁天王	-12.3302
▁ラジ	-12.3302
樹	-12.3302
▁デシベル	-12.3303
▁大神	-12.3303
▁ティム	-12.3306
▁みち	-12.331
ニューギニア	-12.3312
▁幼馴染	-12.3315
▁中津	-12.3319
▁フィット	-12.3323
▁BC	-12.3329
▁レオン	-12.3333
▁覇	-12.3333
▁大根	-12.3333
悔	-12.3333
▁たけし	-12.334
▁語形	-12.3341
▁石造	-12.3351
世代	-12.3358
脱	-12.3361
タル	-12.3363
商事	-12.3366
▁SU	-12.3368
▁年下	-12.3369
▁文人	-12.3371
オス	-12.3374
メ	-12.3375
ばし	-12.3399
イデオロ	-12.34
俸	-12.34
埠	-12.34
沃	-12.34
艤	-12.34
諜	-12.34
▁シロ	-12.3407
▁度数	-12.3408
▁農作	-12.3408
▁ウイ	-12.3427
イコフ	-12.3428
▁厩	-12.3431
▁巌	-12.3431
▁璋	-12.3431
▁錫	-12.3431
▁撫	-12.3431
▁桶	-12.3431
▁掌	-12.3436
▁圧倒	-12.3441
▁事績	-12.3443
▁診察	-12.3443
▁拝殿	-12.3444
▁君臨	-12.3444
▁試練	-12.3444
▁軽快	-12.3444
▁講堂	-12.3444
▁使命	-12.3445
▁銃弾	-12.3445
▁血統	-12.3445
▁税務	-12.3446
▁明言	-12.3446
▁没落	-12.3446
▁ルマン	-12.3447
▁英訳	-12.3448
▁吉祥寺	-12.345
▁総集編	-12.345
▁社民党	-12.345
▁遊べる	-12.345
▁ダーツ	-12.345
▁テック	-12.345
▁ハッチ	-12.345
▁メガネ	-12.345
▁健太郎	-12.345
▁和菓子	-12.345
▁坑	-12.3452
▁裕子	-12.3453
▁眠る	-12.3453
▁外傷	-12.3453
▁メキシ	-12.3453
▁ポツダム	-12.3453
▁ワトソン	-12.3453
▁パラレル	-12.3453
▁ドミニカ	-12.3453
▁三菱電機	-12.3453
▁トータル	-12.3453
▁スモール	-12.3454
▁キューブ	-12.3454
胞	-12.3455
▁青葉	-12.3455
▁スカラー	-12.3456
▁要所	-12.3456
▁早々	-12.3456
▁メカニック	-12.3456
▁パトロール	-12.3456
▁ピッチャー	-12.3456
▁マッチング	-12.3456
▁エンゼル	-12.3457
▁ナンバリング	-12.3458
▁ホロコースト	-12.3458
▁コードネーム	-12.3458
▁品目	-12.3458
▁ビルディング	-12.3458
▁シンボルマーク	-12.3459
▁トルクメニスタン	-12.346
▁姓名	-12.346
▁不便	-12.346
▁コンフィデンスメジャー	-12.3462
▁立ち上がる	-12.3462
▁通例	-12.3463
▁載せる	-12.3463
帝	-12.3464
▁二女	-12.3466
▁逸	-12.3467
▁無機	-12.3468
▁生き方	-12.3469
▁ジョーク	-12.3469
▁務	-12.3472
▁制動	-12.3472
▁ペイ	-12.3475
▁日本銀行	-12.3481
▁電機	-12.3481
▁解き	-12.3487
エスト	-12.3489
▁名勝	-12.3495
▁連体	-12.3503
▁年版	-12.3503
▁CR	-12.351
ソン	-12.351
▁ローラ	-12.3511
令	-12.3512
▁さらさ	-12.3517
CM	-12.3519
▁経る	-12.3519
▁黒川	-12.3522
欠	-12.3523
▁新進	-12.3523
▁一意	-12.3532
▁チュー	-12.3537
▁フ	-12.3541
自動車	-12.3542
ニー	-12.3546
▁あう	-12.3549
▁マック	-12.3553
▁似る	-12.3557
ーバー	-12.3562
国立	-12.3562
ギス	-12.3563
▁ペスト	-12.3564
▁ジブ	-12.3568
NN	-12.3573
▁クール	-12.3577
▁アルバ	-12.358
峨	-12.3581
嵯	-12.3581
惧	-12.3581
泄	-12.3581
浙	-12.3581
▁浮か	-12.3582
▁締め	-12.3582
ンツ	-12.3583
どっ	-12.3587
▁タール	-12.3587
▁外し	-12.3588
▁均	-12.3593
ルー	-12.3594
▁トール	-12.3599
がん	-12.3611
▁峯	-12.3613
▁慧	-12.3613
▁櫛	-12.3613
▁殷	-12.3613
▁穆	-12.3613
▁芯	-12.3613
イネ	-12.3614
ベイ	-12.3617
▁クル	-12.3618
▁インク	-12.3624
▁喫茶	-12.3625
▁褒め	-12.3625
▁這う	-12.3625
▁薔薇	-12.3625
▁覚悟	-12.3625
▁概観	-12.3625
▁因幡	-12.3625
▁正午	-12.3625
▁波及	-12.3625
▁空洞	-12.3625
▁開講	-12.3625
▁サリー	-12.3625
▁遊牧	-12.3626
▁乃木	-12.3626
▁浩二	-12.3626
▁偽造	-12.3626
▁ワニ	-12.3626
▁予科	-12.3627
▁受動	-12.3628
▁発案	-12.3628
▁追いかけ	-12.3629
▁冊子	-12.3629
▁除名	-12.3629
▁実技	-12.363
▁挙式	-12.363
▁魔物	-12.363
▁画風	-12.3631
▁総領事	-12.3631
▁致死	-12.3632
▁正方形	-12.3632
▁ポンド	-12.3632
▁記入	-12.3632
▁連帯	-12.3632
▁グレン	-12.3632
▁FF	-12.3632
▁支出	-12.3633
▁天台	-12.3633
▁空き地	-12.3634
▁三菱重工	-12.3634
▁門下生	-12.3634
▁工法	-12.3635
▁吉村	-12.3635
▁ZERO	-12.3635
▁ふれあい	-12.3635
▁ザグレブ	-12.3635
▁カスタム	-12.3635
▁龍谷大学	-12.3635
▁せっかく	-12.3635
▁イートン	-12.3635
▁モットー	-12.3635
▁コバルト	-12.3635
▁休学	-12.3635
▁チャイム	-12.3635
▁コスモス	-12.3636
▁味付け	-12.3636
▁件数	-12.3636
▁コリンズ	-12.3636
▁コントローラ	-12.3636
▁浅間	-12.3637
▁アクセル	-12.3637
▁下水道	-12.3637
▁神職	-12.3637
▁民話	-12.3637
▁ジャガイモ	-12.3637
▁テコンドー	-12.3637
▁レインボー	-12.3637
▁バットマン	-12.3638
▁レター	-12.3638
▁不参加	-12.3639
▁ルーズベルト	-12.3639
▁フライブルク	-12.3639
▁スキャンダル	-12.3639
磐田	-12.3639
▁流動	-12.364
▁撮る	-12.3641
▁前向き	-12.3642
▁いらっしゃい	-12.3648
▁預け	-12.3651
▁サイクリング	-12.3654
▁高専	-12.3654
▁機密	-12.3654
▁コンチネンタル	-12.3655
惨	-12.3655
▁驚か	-12.3658
▁デッド	-12.3662
▁縮	-12.3665
▁ハウ	-12.3667
▁蒼	-12.3668
▁這い	-12.3668
パレル	-12.3669
グラミ	-12.3671
益	-12.3672
▁群島	-12.3672
▁芋	-12.3674
▁ブレー	-12.3677
▁セリ	-12.3684
▁忌	-12.3685
▁光源	-12.3686
ブス	-12.3686
▁キース	-12.3686
本線	-12.3695
ご	-12.3695
▁辛	-12.3696
▁異体	-12.3696
▁見当た	-12.3702
▁ニール	-12.3704
▁ベール	-12.3705
▁ネギ	-12.3712
与	-12.3713
パニック	-12.3716
ルミ	-12.3716
ガル	-12.3723
p	-12.3728
ルフ	-12.3732
▁山上	-12.3732
レヒト	-12.3741
▁アジ	-12.3746
▁響	-12.3748
▁アブ	-12.3751
イロ	-12.3756
▁人柄	-12.376
杵	-12.3767
押し	-12.3769
ガンダ	-12.3769
蜜	-12.3769
翅	-12.3773
▁沸	-12.3777
物産	-12.3781
道路	-12.3783
▁巧	-12.3788
▁遡	-12.3791
▁ミル	-12.3795
▁唯	-12.3797
▁匂	-12.3798
▁枕	-12.3798
▁絹	-12.3798
▁蛹	-12.3798
城山	-12.38
▁モル	-12.38
反	-12.3805
▁培	-12.3807
▁対峙	-12.381
▁揖斐	-12.381
▁ゾウ	-12.381
▁決裂	-12.381
▁銭湯	-12.381
▁瑞穂	-12.381
▁疑似	-12.381
▁入閣	-12.381
▁養老	-12.3811
▁参列	-12.3811
▁累進	-12.3811
▁何故	-12.3811
▁不適	-12.3811
▁原宿	-12.3811
▁エコ	-12.3812
▁帰属	-12.3814
▁敗走	-12.3814
▁魔界	-12.3814
▁雅子	-12.3815
▁四天王	-12.3816
▁サウナ	-12.3816
▁リッチ	-12.3816
▁みゆき	-12.3817
▁サラダ	-12.3817
▁久美子	-12.3817
▁ミミズ	-12.3817
▁三日月	-12.3817
▁タンゴ	-12.3817
▁守護神	-12.3818
▁パスタ	-12.3818
▁キリン	-12.3819
▁ハープ	-12.3819
▁ジュネー	-12.382
▁ペンギン	-12.382
▁浄土真宗	-12.382
▁おじさん	-12.382
▁モニカ	-12.3821
▁トーキー	-12.3821
▁水草	-12.3821
▁わかり	-12.3822
▁取り除く	-12.3822
▁コレクター	-12.3823
▁サミュエル	-12.3823
▁相対性理論	-12.3823
▁ハイウェイ	-12.3823
▁シューマン	-12.3823
短	-12.3823
▁コンパニオン	-12.3824
▁バーベキュー	-12.3824
▁ミネアポリス	-12.3824
▁ヴィルヘルム	-12.3824
▁東京ドーム	-12.3824
▁コメディアン	-12.3825
▁クロスオーバー	-12.3826
▁素子	-12.3826
▁カウンセリング	-12.3826
▁測る	-12.3828
▁上総	-12.3828
▁植木	-12.3828
▁闘い	-12.3829
▁尋ね	-12.3832
▁掘っ	-12.3832
▁ヒール	-12.3833
▁最少	-12.3833
▁点字	-12.3833
二	-12.3833
▁大作	-12.3834
▁抜ける	-12.3835
▁和子	-12.3836
▁モデリング	-12.3841
▁トランジスタ	-12.3845
▁本願寺	-12.3846
トゥー	-12.3846
▁正門	-12.3847
▁表わ	-12.3849
▁中庭	-12.385
▁ぶん	-12.3855
▁公主	-12.3857
IS	-12.387
ポ	-12.387
▁FS	-12.3872
クトゥ	-12.3872
▁一人物	-12.3874
st	-12.3875
▁なくなり	-12.3881
▁ウラジ	-12.3883
GP	-12.3884
▁もらえ	-12.3884
▁央	-12.3891
▁こよ	-12.3895
▁頼ん	-12.3897
▁パウロ	-12.3897
商	-12.3906
▁大通り	-12.3907
り合い	-12.3907
▁ニジ	-12.3907
しく	-12.3909
▁イチ	-12.3909
▁全文	-12.391
旋	-12.3919
ンジ	-12.392
▁月日	-12.3921
ポロ	-12.3922
▁ロッキー	-12.393
▁ジュー	-12.3936
▁人力	-12.3938
▁今や	-12.3941
▁産物	-12.3955
壕	-12.3955
冊	-12.3958
▁さんま	-12.3966
ジン	-12.3969
した	-12.3971
目的	-12.3979
人民	-12.3985
▁橙	-12.3986
▁茨	-12.3986
▁ブロード	-12.3986
▁−	-12.3986
▁眞	-12.3986
▁出回	-12.3991
▁コネ	-12.3994
ルバ	-12.3996
▁読め	-12.3997
▁とどめ	-12.3999
▁電卓	-12.3999
▁昇降	-12.3999
▁圧迫	-12.3999
▁夕張	-12.3999
▁噴出	-12.4
▁脚注	-12.4
▁同志社	-12.4
▁敦賀	-12.4
▁公判	-12.4
▁上回	-12.4002
▁植林	-12.4002
▁複葉	-12.4002
▁確かめ	-12.4002
▁参政	-12.4003
▁吸血鬼	-12.4005
▁パッチ	-12.4005
▁ニース	-12.4005
▁陽気	-12.4006
▁赴く	-12.4007
▁湖北	-12.4007
▁NPC	-12.4008
▁小池	-12.4008
▁定まる	-12.4008
▁国務大臣	-12.4009
▁チャイナ	-12.4009
▁ノーラン	-12.401
▁はじまり	-12.4011
▁チャー	-12.4011
▁プリキュア	-12.4011
▁農林水産省	-12.4011
▁バーンズ	-12.4011
▁ノーヒット	-12.4011
▁グリー	-12.4012
▁ソリスト	-12.4012
▁GH	-12.4012
▁四角	-12.4012
▁小姓	-12.4013
▁クリエイター	-12.4013
▁キングストン	-12.4013
▁シェフィールド	-12.4014
▁ブタ	-12.4015
▁入校	-12.4015
▁係る	-12.4016
▁マリン	-12.4016
▁上向き	-12.4017
▁コントローラー	-12.4017
▁クラッチ	-12.4018
▁鳴る	-12.4019
▁常用	-12.4019
▁遭い	-12.4019
▁連行	-12.402
▁粛	-12.402
▁頼り	-12.4023
▁ブルズ	-12.4025
▁ウェーバー	-12.4026
▁形容	-12.4028
▁大当たり	-12.4028
▁退く	-12.403
▁b	-12.4032
覆	-12.4033
▁先制	-12.4034
▁ドキュメント	-12.4036
癒	-12.4042
肥	-12.4043
規模	-12.4046
▁綬章	-12.4046
▁強打	-12.405
▁ディーン	-12.4053
ルーズ	-12.4062
▁拍子	-12.4062
依	-12.4063
▁オマー	-12.4064
▁村長	-12.4066
アナ	-12.4069
▁滑り	-12.408
レッド	-12.4081
ギ	-12.4083
▁ティッシュ	-12.4093
ットー	-12.4093
製品	-12.4093
▁真っ	-12.4097
▁サバ	-12.4099
奇	-12.41
▁マカ	-12.4104
ーナ	-12.4105
▁ベット	-12.4108
▁日経	-12.4117
▁座る	-12.4118
加	-12.4125
▁そろ	-12.4134
▁脈	-12.4136
麦	-12.4137
▁下車	-12.4138
▁おっしゃ	-12.414
シュタ	-12.414
氏	-12.4147
▁南山	-12.4147
タナ	-12.4147
肛	-12.4148
ノヴ	-12.415
プア	-12.4151
▁まして	-12.4162
そく	-12.4163
▁年数	-12.4165
藍	-12.4168
▁柔	-12.4177
▁亘	-12.4178
▁拒	-12.4178
▁帆	-12.4178
▁佑	-12.4179
▁宍	-12.4179
▁廣	-12.4179
▁朔	-12.4179
▁蜀	-12.4179
ック	-12.418
▁NG	-12.4184
▁叩	-12.4186
削	-12.4188
孫	-12.4189
▁水曜	-12.419
▁茹で	-12.4191
▁応召	-12.4191
▁停泊	-12.4191
▁尋問	-12.4191
▁履修	-12.4191
▁紳士	-12.4191
▁繋ぐ	-12.4191
▁収支	-12.4191
▁阿蘇	-12.4191
▁議決	-12.4191
▁懐疑	-12.4191
▁補修	-12.4191
▁反抗	-12.4192
▁速報	-12.4192
▁美女	-12.4192
▁克	-12.4192
▁浪曲	-12.4193
▁魚介	-12.4193
▁居士	-12.4193
▁包装	-12.4193
▁火炎	-12.4193
▁荷重	-12.4193
▁架橋	-12.4193
▁休職	-12.4194
▁ブカ	-12.4194
▁傾き	-12.4194
▁服飾	-12.4194
▁足跡	-12.4195
▁草津	-12.4197
▁羽根	-12.4197
▁オタク	-12.4197
▁亜細亜	-12.4197
▁冷蔵庫	-12.4197
▁あゆみ	-12.4197
▁風土記	-12.4197
▁多面体	-12.4198
▁エルフ	-12.4198
▁筑後	-12.4198
▁ミステリ	-12.4198
▁カオス	-12.4198
▁ジャム	-12.4199
▁予告編	-12.4199
▁厚生省	-12.4199
▁結実	-12.42
▁キッチン	-12.4201
▁スチール	-12.4201
▁avex	-12.4201
▁セクター	-12.4201
▁天正	-12.4201
▁ストーム	-12.4201
▁ヘリウム	-12.4201
▁グリッド	-12.4201
▁ボク	-12.4201
▁アイアン	-12.4201
▁どうやら	-12.4201
▁ウェルズ	-12.4201
▁負け越し	-12.4202
▁プライド	-12.4202
▁おいしく	-12.4203
▁代々木	-12.4203
▁リバイバル	-12.4203
▁パルチザン	-12.4203
▁パーキング	-12.4204
▁プライス	-12.4204
払う	-12.4205
▁アーリントン	-12.4205
▁着け	-12.4205
▁エッセイスト	-12.4206
▁プラネタリウム	-12.4206
▁上段	-12.4208
▁京子	-12.4208
▁ディーゼルエンジン	-12.4208
▁尖る	-12.4209
▁スキューバダイビング	-12.4209
▁種子島	-12.421
▁唱える	-12.4211
▁西アフリカ	-12.4212
ーム	-12.4212
▁総局	-12.4212
▁テラス	-12.4213
PB	-12.4216
▁勝率	-12.4217
▁GT	-12.4218
吐	-12.4218
▁賑わ	-12.4225
▁切り出	-12.423
かし	-12.423
▁下がり	-12.4231
▁隷	-12.4231
▁室長	-12.4231
▁軍勢	-12.4234
ゴロ	-12.4236
▁書家	-12.4239
▁下方	-12.4239
▁特長	-12.424
▁ビジュアル	-12.424
ラウイ	-12.4245
▁コンサ	-12.4249
▁遅れる	-12.4253
通り	-12.4254
▁っけ	-12.4255
▁追い出	-12.4256
▁グル	-12.4258
秀	-12.4261
▁都度	-12.4265
▁黙	-12.4266
▁書院	-12.4271
▁いざ	-12.4274
文化	-12.4286
▁中距離	-12.429
▁ニン	-12.4293
▁新日本	-12.4297
▁中性	-12.4302
そこ	-12.4303
▁遠ざか	-12.432
フェース	-12.4324
▁本流	-12.4341
とか	-12.4341
糧	-12.4343
伽	-12.4344
濠	-12.4344
ブラザース	-12.4344
▁長谷	-12.4344
天堂	-12.4344
▁リベ	-12.435
▁うつ	-12.4351
ノール	-12.4352
J	-12.4354
▁中興	-12.4358
▁はじま	-12.4361
一致	-12.4369
砂漠	-12.437
障	-12.4373
▁是	-12.4374
北道	-12.4374
▁允	-12.4375
▁狐	-12.4375
▁葵	-12.4375
▁倭	-12.4375
▁或	-12.4375
ヴァン	-12.438
▁叔母	-12.4387
▁炒め	-12.4387
▁猶予	-12.4387
▁疫病	-12.4387
▁謙信	-12.4387
▁潜航	-12.4387
▁潜伏	-12.4387
▁ピザ	-12.4387
▁富豪	-12.4387
▁漂流	-12.4387
▁雷雨	-12.4388
▁擁立	-12.4388
▁鋭く	-12.4388
▁奥羽	-12.4389
▁上洛	-12.4389
▁合奏	-12.4389
▁転出	-12.439
▁交番	-12.439
▁発令	-12.439
▁落城	-12.439
▁産経	-12.439
▁元祖	-12.439
▁襲来	-12.439
▁天敵	-12.4391
▁届出	-12.4391
シオン	-12.4391
▁増幅	-12.4391
▁ギャラ	-12.4393
▁放課後	-12.4393
▁あだ名	-12.4393
▁シェフ	-12.4393
▁JST	-12.4393
▁トマス	-12.4393
▁不等式	-12.4393
▁ブーツ	-12.4394
▁エルサ	-12.4394
▁学徒	-12.4394
▁ホープ	-12.4394
▁ロンド	-12.4395
▁山口組	-12.4395
▁こんなに	-12.4395
▁紀行	-12.4395
▁短め	-12.4396
▁郷社	-12.4396
▁握る	-12.4396
▁裏切り	-12.4397
▁ナミビア	-12.4397
▁バトラー	-12.4397
▁リザーブ	-12.4397
▁ギミック	-12.4397
▁プリマス	-12.4397
▁ミシェル	-12.4397
▁ジャガー	-12.4397
▁おっきい	-12.4398
▁ディスコ	-12.4398
▁見なす	-12.4399
▁シンデレラ	-12.4399
▁ハリケーン	-12.4399
▁旭日大綬章	-12.4399
▁エンジェル	-12.4399
▁引き継ぎ	-12.44
▁涼しい	-12.44
▁オペレーター	-12.4401
▁シンポジウム	-12.4401
▁ビートたけし	-12.4401
▁オートレース	-12.4401
▁スティーヴン	-12.4402
▁カセットテープ	-12.4402
▁ミリオンセラー	-12.4402
▁アームストロング	-12.4403
▁スペースシャトル	-12.4404
▁遺書	-12.4404
ヌー	-12.4405
▁越中	-12.4406
▁田代	-12.4408
▁パッド	-12.4409
▁倫	-12.4411
▁っす	-12.4412
錬	-12.4413
▁同期生	-12.4413
エタ	-12.4415
▁囲む	-12.4417
▁デリー	-12.4417
受	-12.4419
▁分館	-12.442
▁つくり	-12.4421
▁嗣子	-12.4428
▁マーカー	-12.4429
▁依	-12.443
▁アンプ	-12.4431
▁花見	-12.4432
▁鉛筆	-12.4433
▁芳し	-12.4436
▁ひた	-12.4438
▁坂上	-12.4438
グル	-12.4438
▁際立	-12.4439
▁要は	-12.444
▁局員	-12.4442
慶	-12.4444
▁長大	-12.4444
える	-12.4448
自然	-12.4449
藩	-12.4456
▁プログラマ	-12.4456
▁平方	-12.4457
▁破れ	-12.4457
▁したがっ	-12.4458
▁白地	-12.4464
▁小金	-12.4466
散	-12.4474
▁話せ	-12.4475
コンシ	-12.4482
▁買い取	-12.4482
スブルク	-12.4482
文学部	-12.4487
住	-12.4494
トリック	-12.4497
▁用具	-12.4503
▁タカ	-12.4504
▁アド	-12.4504
使	-12.4511
▁GB	-12.4511
▁勝ち抜	-12.4513
▁心地	-12.4522
▁本町	-12.4524
ュー	-12.4526
ストファー	-12.4536
▁ばん	-12.4537
まわり	-12.4538
▁ブラウザ	-12.4538
クラブ	-12.4538
▁酵	-12.4539
渤	-12.4544
▁気味	-12.4545
トウキ	-12.4555
▁リポート	-12.4555
裏	-12.4556
ッセル	-12.4556
▁貢	-12.4568
▁損	-12.4569
展	-12.4569
▁傾	-12.4571
▁迂	-12.4574
▁盧	-12.4574
▁会戦	-12.4577
中央	-12.4578
ドルフ	-12.458
なお	-12.4581
チュア	-12.4582
ザイク	-12.4583
による	-12.4585
ングル	-12.4587
▁ヨウ	-12.4587
▁訪日	-12.4587
▁疾病	-12.4587
▁好投	-12.4587
▁停電	-12.4587
▁漁船	-12.4588
▁横穴	-12.4588
▁強固	-12.4589
▁秀雄	-12.459
▁ゴア	-12.459
▁絵師	-12.459
▁尊重	-12.459
▁駆けつけ	-12.459
▁破局	-12.459
▁季語	-12.459
▁権現	-12.4591
▁商事	-12.4592
▁ジャワ	-12.4592
▁解像度	-12.4593
▁隅田川	-12.4593
▁公会堂	-12.4594
▁グリル	-12.4594
▁ミカン	-12.4594
▁新潮社	-12.4594
▁絶えず	-12.4594
クス	-12.4594
▁参事官	-12.4594
▁ウォン	-12.4594
▁マント	-12.4595
▁カヴァー	-12.4597
▁文藝春秋	-12.4597
▁ジョゼフ	-12.4597
▁ビクター	-12.4597
▁ハルビン	-12.4597
▁商会	-12.4598
曇	-12.4598
▁まんま	-12.4599
▁ブリスベン	-12.4599
▁デラックス	-12.4599
▁トレーラー	-12.4599
▁兼用	-12.46
▁タイラー	-12.4601
▁ナビゲーター	-12.4601
▁チューリップ	-12.4601
▁要点	-12.4601
▁旗手	-12.4601
▁たちまち	-12.4602
▁タケ	-12.4602
▁創部	-12.4602
▁裏付ける	-12.4602
▁オーソドックス	-12.4602
▁沖合	-12.4603
▁アソシエーション	-12.4603
▁ヴァイオリニスト	-12.4603
▁国債	-12.4605
牙	-12.4606
▁進水	-12.4606
▁明代	-12.4607
▁ヤン	-12.4607
すら	-12.4609
▁別館	-12.4609
▁プリ	-12.461
▁盛り上がる	-12.4611
▁輝き	-12.4611
▁音調	-12.4612
▁着る	-12.4612
▁文官	-12.4613
▁ゆり	-12.4613
▁竹中	-12.4614
徒	-12.4616
▁努める	-12.4617
▁ポーター	-12.4618
▁教化	-12.4618
▁団員	-12.4618
▁捨てる	-12.4619
▁置き換える	-12.4619
▁トレー	-12.4619
▁直木	-12.462
▁劣	-12.4623
▁パーソナル	-12.4625
▁遣	-12.4626
▁繰り	-12.4634
てい	-12.4637
▁渡す	-12.464
▁五月	-12.4642
晩	-12.4644
君	-12.4652
▁あて	-12.4655
ニ	-12.4667
▁ルース	-12.467
▁w	-12.4671
▁停	-12.4672
セリエ	-12.4675
▁喜多	-12.4675
▁ヤード	-12.4676
カビ	-12.4676
▁しま	-12.4683
▁コミカ	-12.4687
▁裁	-12.4689
ニーズ	-12.469
▁利き	-12.4692
ペン	-12.4699
▁トラス	-12.4702
ソー	-12.4712
ナント	-12.4713
験	-12.4713
イル	-12.472
▁暮れ	-12.4723
▁パッ	-12.4733
うとう	-12.4734
止	-12.4741
▁両性	-12.4744
▁収ま	-12.4746
Ζ	-12.4748
寵	-12.4748
高速	-12.4752
ぼ	-12.4768
y	-12.4768
作品	-12.4775
▁笹	-12.4778
▁楯	-12.4778
▁眉	-12.4778
▁釘	-12.4778
材料	-12.4787
▁ヒス	-12.4789
▁委嘱	-12.4791
▁焼酎	-12.4791
▁硝酸	-12.4791
▁罷免	-12.4791
▁罹患	-12.4791
▁蕎麦	-12.4791
▁宣誓	-12.4791
▁奔走	-12.4791
▁泥棒	-12.4791
▁巡査	-12.4791
▁狂言	-12.4791
▁動乱	-12.4791
▁北斗	-12.4792
▁法曹	-12.4792
▁委ね	-12.4792
▁猪木	-12.4792
▁栄典	-12.4792
▁牛肉	-12.4792
▁発散	-12.4793
リス	-12.4793
▁即死	-12.4793
▁超過	-12.4793
▁九郎	-12.4794
▁弾丸	-12.4794
▁優等	-12.4794
▁改選	-12.4795
▁半球	-12.4796
▁転生	-12.4796
▁メッカ	-12.4797
▁田んぼ	-12.4797
▁菊花賞	-12.4797
▁贈り物	-12.4797
▁直属	-12.4797
▁脂肪酸	-12.4797
▁くっ	-12.4798
▁甲賀	-12.4798
▁レンタ	-12.4799
▁秘書官	-12.4799
▁難い	-12.48
▁ジーン	-12.48
▁実感	-12.48
▁エレベータ	-12.48
▁ベッテル	-12.4801
▁ターナー	-12.4801
▁トムソン	-12.4801
▁扱える	-12.4801
▁リガ	-12.4802
▁ラット	-12.4803
▁アーノルド	-12.4803
▁ジョナサン	-12.4803
▁ストライプ	-12.4803
▁ファシズム	-12.4803
▁ストリップ	-12.4803
▁矢作	-12.4803
▁折り返す	-12.4804
▁源氏	-12.4804
▁三菱自動車	-12.4804
▁テロリスト	-12.4804
▁戦没	-12.4804
▁フェミニズム	-12.4805
▁ラグランジュ	-12.4805
▁シルクロード	-12.4805
▁ワイドショー	-12.4805
▁奴	-12.4805
▁口調	-12.4806
▁イノベーション	-12.4806
▁エレクトリック	-12.4806
▁カウントダウン	-12.4806
▁跳	-12.4807
▁ハーン	-12.4809
バ	-12.481
▁オペレーティングシステム	-12.481
▁道教	-12.481
太郎	-12.4812
▁ゾイド	-12.4813
▁コブ	-12.4814
▁八月	-12.4815
▁日本武道館	-12.4815
▁特徴付け	-12.4815
▁ルパン	-12.4815
▁用紙	-12.4815
▁やって来る	-12.4817
京大	-12.4818
▁明大	-12.4818
▁スクリ	-12.4819
▁十郎	-12.4821
▁もとより	-12.4822
▁駅長	-12.4825
▁ルノー	-12.4826
▁みせ	-12.4827
▁アンリ	-12.4829
▁電線	-12.483
▁受け止め	-12.4837
ハマ	-12.4838
▁戦役	-12.4844
ルク	-12.4845
イタリア	-12.4849
▁事物	-12.485
助け	-12.4852
ージ	-12.486
▁青地	-12.4862
レルモ	-12.4868
アンドラ	-12.487
▁ハイデ	-12.4882
▁見よ	-12.4883
▁ブレ	-12.4891
せる	-12.4892
疎	-12.4893
少し	-12.4902
▁キル	-12.4906
▁ファンク	-12.4907
ポート	-12.4914
株	-12.4918
▁屯	-12.4919
▁ふく	-12.492
▁ブライ	-12.4922
ブラジ	-12.4923
負	-12.4938
腱	-12.4956
リントン	-12.4957
▁なくな	-12.4957
▁詰	-12.4962
誠	-12.4963
▁SL	-12.4963
▁己	-12.4967
ディビ	-12.4968
▁釣	-12.4968
▁牢	-12.497
ッティング	-12.4973
▁寄宿	-12.4976
ルタ	-12.4979
▁擁	-12.498
ザス	-12.4982
ーダー	-12.4985
▁傑	-12.4985
場合	-12.4997
▁平凡	-12.4998
▁遊撃	-12.4999
▁眺望	-12.4999
▁研鑽	-12.4999
▁探求	-12.4999
▁勤労	-12.4999
▁受諾	-12.4999
▁溜め	-12.4999
▁余暇	-12.4999
▁激突	-12.4999
▁峡谷	-12.4999
▁達也	-12.5
▁幻覚	-12.5
▁知恵	-12.5
▁ヒロ	-12.5
▁株価	-12.5001
▁留意	-12.5001
▁産まれ	-12.5001
▁富む	-12.5001
▁公卿	-12.5001
▁春樹	-12.5001
▁桃色	-12.5002
▁庸	-12.5002
▁整合	-12.5003
▁摂動	-12.5003
▁七郎	-12.5003
▁促音	-12.5003
▁違和	-12.5003
▁接点	-12.5004
▁全羅	-12.5004
多い	-12.5005
▁オマハ	-12.5005
▁暖かく	-12.5005
▁休校	-12.5005
▁合気道	-12.5005
▁平仮名	-12.5006
▁引越し	-12.5006
▁栄一	-12.5006
▁拠る	-12.5006
▁星団	-12.5006
▁城塞	-12.5007
▁文末	-12.5008
▁営み	-12.5008
▁アース	-12.5009
▁スーザン	-12.5009
▁トビリシ	-12.5009
▁ビニール	-12.5009
▁モノラル	-12.5009
▁マッカー	-12.5009
▁定型	-12.5009
▁ツイート	-12.5009
▁ダンカン	-12.5009
▁読み書き	-12.501
▁アルジェ	-12.501
リ	-12.5011
▁下段	-12.5011
▁大腸	-12.5012
▁出羽	-12.5012
▁ジョーカー	-12.5012
▁まとまり	-12.5013
▁お陰	-12.5013
▁三菱重工業	-12.5013
▁現像	-12.5013
▁モンゴメリー	-12.5013
▁スティーブン	-12.5013
▁プランニング	-12.5013
▁法典	-12.5013
▁劇映画	-12.5013
▁はじまる	-12.5014
▁力強い	-12.5014
▁コピーライター	-12.5015
▁久し	-12.5015
▁平城	-12.5016
▁動態	-12.5016
▁来年	-12.5016
▁スターダストプロモーション	-12.5018
▁準じる	-12.5019
▁深める	-12.502
▁クレタ	-12.5021
▁本所	-12.5022
▁光る	-12.5022
▁ひどい	-12.5023
▁正史	-12.5023
▁明子	-12.5023
▁引き締ま	-12.5027
▁秒間	-12.5028
▁忙しい	-12.5029
▁明神	-12.5029
▁セレクション	-12.503
水道	-12.5031
▁無くなる	-12.5031
▁叫	-12.5032
▁相場	-12.5032
▁場内	-12.5033
▁別れる	-12.5034
▁倒れる	-12.5038
駅	-12.5038
▁カタ	-12.504
▁フリート	-12.5044
▁アルキ	-12.5046
▁自家	-12.5046
▁賄	-12.5057
▁一文	-12.5061
▁落と	-12.5062
▁チョウ	-12.5064
▁襲い	-12.5069
▁ローラー	-12.508
▁おっ	-12.5081
▁国学	-12.5083
女子大学	-12.509
▁チャイ	-12.5096
t	-12.5097
▁カラカ	-12.5109
ーセ	-12.5111
フォー	-12.5111
冠	-12.5117
行為	-12.5127
ブリ	-12.5134
▁ハーモニー	-12.5138
マラ	-12.5143
貢	-12.5143
▁柴	-12.5146
▁大岡	-12.5148
▁番地	-12.5153
▁ET	-12.5164
ビアン	-12.5167
辱	-12.5169
嘔	-12.5169
汐	-12.5169
瘤	-12.5169
矮	-12.5169
窩	-12.5169
繕	-12.5169
ne	-12.5169
血球	-12.5169
Tu	-12.5169
▁レフト	-12.5171
シャン	-12.518
▁ゆい	-12.5181
▁ゴー	-12.5183
▁マキ	-12.519
ジャージー	-12.5195
▁漂	-12.5196
▁紺	-12.5199
▁譚	-12.5199
▁竪	-12.5199
▁LIN	-12.5202
ベガ	-12.5205
▁うう	-12.5207
▁逃げ出	-12.5209
医科	-12.521
▁芥川	-12.5211
▁講談	-12.5211
▁安堵	-12.5212
▁受勲	-12.5212
▁納豆	-12.5212
▁返済	-12.5212
▁保釈	-12.5212
▁哲郎	-12.5212
▁上梓	-12.5212
▁蓄え	-12.5212
▁治め	-12.5212
▁藩邸	-12.5212
▁鮮明	-12.5212
▁健太	-12.5212
▁ハリ	-12.5213
▁に当たり	-12.5213
▁注記	-12.5213
▁ダメ	-12.5213
▁魔神	-12.5213
▁助演	-12.5213
▁進駐	-12.5213
▁健在	-12.5214
▁混成	-12.5214
▁修得	-12.5214
▁合図	-12.5214
▁算数	-12.5214
ンレス	-12.5215
フィン	-12.5215
▁業態	-12.5215
▁唐津	-12.5215
▁筒井	-12.5215
▁実演	-12.5216
▁磁石	-12.5216
▁復学	-12.5216
▁加害	-12.5217
▁入園	-12.5217
▁キツネ	-12.5218
▁後遺症	-12.5218
▁マグマ	-12.5218
▁めぐみ	-12.5218
▁GDP	-12.5218
▁バルブ	-12.5219
▁オウム	-12.5219
▁四角形	-12.5219
▁根強い	-12.522
▁軽音楽	-12.5221
▁ゲレンデ	-12.5222
▁ボヘミア	-12.5222
▁ムエタイ	-12.5222
▁サイコロ	-12.5222
▁信用金庫	-12.5222
▁スパルタ	-12.5222
▁カロリー	-12.5222
▁やりとり	-12.5222
▁テンプル	-12.5222
▁グラハム	-12.5222
▁ヒッター	-12.5222
▁金魚	-12.5222
▁リンダ	-12.5222
▁リベリア	-12.5222
▁自家用車	-12.5223
▁信条	-12.5223
▁入れ替わ	-12.5223
▁アベニュー	-12.5224
▁スニーカー	-12.5224
▁セレモニー	-12.5224
▁エメラルド	-12.5224
▁フランソワ	-12.5224
▁逃す	-12.5224
▁デメリット	-12.5224
▁ブルックス	-12.5224
▁セーラー服	-12.5224
▁ジャカルタ	-12.5224
▁蔭	-12.5225
▁吸う	-12.5225
▁出入り口	-12.5226
▁プロパガンダ	-12.5226
▁サプリメント	-12.5226
▁かわいい	-12.5227
▁立ち上がり	-12.5227
▁エレクトロニクス	-12.5228
▁マスト	-12.5228
▁AD	-12.5228
▁公務	-12.5229
▁クロスカントリー	-12.5229
▁ポン	-12.5229
▁我ら	-12.5231
▁滞	-12.5231
▁中西	-12.5233
▁食器	-12.5234
▁引っ張	-12.5234
▁リニア	-12.5235
▁初段	-12.5236
堀	-12.5237
▁避	-12.5238
▁ライス	-12.5238
▁山寺	-12.5238
修	-12.5238
▁退け	-12.5238
▁座長	-12.5238
▁かしら	-12.5239
▁ゲームセンター	-12.5241
▁軍服	-12.5247
▁び	-12.5251
▁ルソン	-12.5252
▁愛人	-12.5252
▁レオポル	-12.5253
▁ワイヤー	-12.5254
▁シグナル	-12.5254
▁けい	-12.5255
▁待た	-12.5256
柳	-12.526
▁取扱い	-12.5261
▁ビクト	-12.5262
▁打ち出	-12.5263
▁クエ	-12.5263
▁お寺	-12.5264
▁大家	-12.5268
▁褒章	-12.5275
▁PT	-12.5275
窪	-12.5275
▁ジャーナ	-12.5281
▁下限	-12.5284
伝	-12.5288
▁負ける	-12.5288
▁空き	-12.5291
▁インディペンデント	-12.5298
ジュ	-12.53
ーベル	-12.5306
オリ	-12.5311
裂	-12.5313
陵	-12.5315
▁四月	-12.5315
関節	-12.5316
▁勤	-12.5323
薬品	-12.5324
▁タラ	-12.5326
▁北川	-12.5327
寄せ	-12.5328
▁宿舎	-12.5329
▁剥	-12.5333
おり	-12.5335
c	-12.5338
PO	-12.5342
▁トロイ	-12.5347
▁一雄	-12.5348
ティモ	-12.5356
ーカー	-12.5372
リスト	-12.5373
▁飛び出	-12.5376
OX	-12.5382
董	-12.5386
幣	-12.5386
クション	-12.5386
毀	-12.5386
皐	-12.5386
篆	-12.5386
銚	-12.5386
モント	-12.539
▁ウィンド	-12.5391
▁譲り	-12.5395
洲	-12.5396
範	-12.5401
んかん	-12.5403
給	-12.5405
▁閣	-12.5408
▁食する	-12.5409
▁嗅	-12.5417
▁鮎	-12.5417
▁〇	-12.5417
ネーション	-12.5417
ユナイテッド	-12.5424
▁まい	-12.5424
G	-12.5424
▁鍛え	-12.5424
▁パワ	-12.5428
▁告訴	-12.5429
▁老衰	-12.5429
▁汲む	-12.5429
▁花嫁	-12.5429
▁菱形	-12.5429
▁久我	-12.5429
▁援護	-12.543
▁パパ	-12.543
▁素直	-12.543
▁湧出	-12.543
▁復職	-12.543
▁書写	-12.543
▁罰金	-12.543
▁実姉	-12.543
▁免職	-12.543
▁構図	-12.5431
▁直樹	-12.5431
▁手袋	-12.5431
▁空爆	-12.5431
▁帰順	-12.5431
▁握手	-12.5431
▁美味	-12.5433
▁敦子	-12.5433
▁ゴマ	-12.5433
▁香水	-12.5433
▁共起	-12.5433
▁若林	-12.5433
▁明白	-12.5434
▁故人	-12.5434
▁給水	-12.5434
▁加筆	-12.5434
▁昔話	-12.5435
▁商号	-12.5435
▁オタワ	-12.5435
▁博報堂	-12.5435
▁木更津	-12.5435
▁請け負	-12.5435
▁マーチ	-12.5435
▁茶褐色	-12.5436
▁休場	-12.5436
▁副題	-12.5437
▁将官	-12.5437
▁大破	-12.5437
▁口座	-12.5437
▁例示	-12.5438
コーラ	-12.5438
▁栄養素	-12.5438
▁キープ	-12.5439
▁カプコン	-12.5439
▁セレクト	-12.5439
▁対症療法	-12.5439
▁ブレイク	-12.5439
▁デンバー	-12.5439
▁ゴンドラ	-12.5439
▁エキス	-12.5439
▁文集	-12.5439
▁取り決め	-12.544
▁クローン	-12.544
▁カーテン	-12.544
▁左近	-12.544
▁スキャン	-12.544
▁高野山	-12.5441
▁デイヴィス	-12.5441
▁スラッガー	-12.5441
▁タブレット	-12.5441
▁乱数	-12.5442
▁通説	-12.5443
▁フランコ	-12.5443
▁アルベルト	-12.5443
▁モンテカルロ	-12.5443
▁ユヴェントス	-12.5443
▁子息	-12.5444
▁コンベンション	-12.5444
▁トライアスロン	-12.5444
▁ボーイスカウト	-12.5444
▁幾らか	-12.5445
▁隙	-12.5445
▁文科	-12.5449
▁端子	-12.545
▁志賀	-12.545
▁思い出す	-12.5451
ガダ	-12.5451
▁書画	-12.5452
▁ネック	-12.5452
ハイム	-12.5454
▁きれい	-12.5454
▁いた	-12.5454
▁国文学	-12.5455
▁杏	-12.5456
わり	-12.546
ラム	-12.5461
▁釜	-12.5461
▁埋める	-12.5463
▁中途	-12.5465
▁抜	-12.5466
▁徳山	-12.5468
▁史家	-12.5479
▁公家	-12.5482
▁g	-12.5483
▁ビス	-12.5486
▁ハッ	-12.5486
▁基数	-12.5492
らえ	-12.5493
▁IW	-12.5497
▁どん	-12.5503
▁進学校	-12.5506
▁佐川	-12.5511
歌集	-12.5513
ダー	-12.5517
▁廠	-12.5521
▁さし	-12.5522
▁成り	-12.5529
▁さかん	-12.5532
CG	-12.5539
ルバニ	-12.5544
▁だけど	-12.5547
▁見所	-12.5552
RO	-12.5555
セット	-12.5562
▁焼け	-12.5564
意味	-12.5571
道具	-12.5578
公立	-12.5589
▁十月	-12.5595
ディスク	-12.5597
財	-12.5599
▁おじ	-12.5608
嚆	-12.5608
塵	-12.5608
梢	-12.5608
痘	-12.5608
訃	-12.5608
陪	-12.5608
隘	-12.5608
麹	-12.5608
紆	-12.5609
シャフト	-12.5609
ゴーグ	-12.5609
ダイバー	-12.5612
ワンダ	-12.5614
▁SI	-12.5616
▁謳	-12.562
電鉄	-12.5631
▁挑	-12.5636
▁汽	-12.5638
▁勉	-12.5639
▁迎	-12.5648
▁スタンス	-12.5649
▁殺到	-12.5651
▁強姦	-12.5651
▁旺盛	-12.5651
▁盆栽	-12.5651
▁希薄	-12.5651
▁夕刊	-12.5651
▁復刊	-12.5651
▁軌跡	-12.5651
▁彫像	-12.5651
▁延べ	-12.5651
▁健闘	-12.5651
▁不倫	-12.5651
▁混血	-12.5652
▁焼肉	-12.5652
▁転入	-12.5652
▁税関	-12.5652
▁終息	-12.5653
▁試薬	-12.5653
▁留任	-12.5653
▁引火	-12.5654
▁真夏	-12.5654
▁減速	-12.5655
▁原典	-12.5656
▁あふれ	-12.5656
▁平塚	-12.5656
▁金髪	-12.5657
▁伊集院	-12.5657
▁つなぐ	-12.5657
▁カザン	-12.5657
▁甲南	-12.5657
▁浄土宗	-12.5657
▁常勤	-12.5658
▁採点	-12.5658
▁洋子	-12.5659
▁歩道橋	-12.5659
▁豊岡	-12.5659
▁ひかり	-12.5659
▁柏原	-12.5659
▁アキ	-12.566
▁空席	-12.566
▁ゴート	-12.566
▁笑う	-12.566
▁正中	-12.5661
▁目玉	-12.5661
▁イデアル	-12.5661
▁ギャップ	-12.5661
▁マドンナ	-12.5661
▁日本通運	-12.5661
▁NEWS	-12.5661
▁意気投合	-12.5661
▁ミリオン	-12.5661
▁改易	-12.5661
▁薬局	-12.5661
▁打ち込む	-12.5662
▁ブルボン	-12.5662
▁マルコ	-12.5662
▁アミューズ	-12.5663
▁ジェンダー	-12.5663
▁パターソン	-12.5663
▁ボイコット	-12.5663
ちゃん	-12.5664
▁下回る	-12.5664
▁音階	-12.5664
▁ふさわしい	-12.5664
▁読売新聞社	-12.5665
▁ストリッパー	-12.5665
▁ハント	-12.5665
▁ナイトクラブ	-12.5666
▁コンパイラ	-12.5666
▁おしん	-12.5666
▁入れ替わり	-12.5666
▁兼業	-12.5667
▁博す	-12.5668
▁UK	-12.5668
▁外れる	-12.5669
▁スーパーファミコン	-12.5669
▁電話機	-12.5669
▁ハードル	-12.5669
▁西国	-12.5671
▁大きめ	-12.5672
▁補う	-12.5672
▁マルク	-12.5673
▁発進	-12.5673
▁一同	-12.5673
▁ワイルド	-12.5675
▁誘導体	-12.5676
▁全焼	-12.5676
▁非合	-12.5678
▁ホイッ	-12.5678
▁譲る	-12.5679
▁使い分ける	-12.5679
▁恵子	-12.568
▁面体	-12.568
偽	-12.568
▁堀内	-12.5681
▁エディション	-12.5683
早	-12.5684
▁平民	-12.5687
▁振り返る	-12.5688
里見	-12.5688
▁西条	-12.5688
▁正教	-12.5689
技	-12.5691
▁出せる	-12.5694
ぐ	-12.5699
▁豊中	-12.5702
▁前輪	-12.5703
▁癒	-12.5709
▁民生	-12.5711
▁フレンド	-12.5715
▁テル	-12.5718
▁SG	-12.5719
津川	-12.5719
▁新城	-12.572
ライ	-12.5727
▁岩田	-12.5729
▁一向	-12.5729
ーニャ	-12.5732
極大	-12.5734
ピア	-12.5737
デマンド	-12.574
▁拝	-12.5745
▁足ら	-12.575
▁プリン	-12.5758
EC	-12.5759
絶	-12.5767
亡	-12.5768
ンピオ	-12.5769
▁同調	-12.5771
急行	-12.5772
▁被る	-12.5772
▁後身	-12.5772
▁ED	-12.5775
オラ	-12.5778
▁託	-12.578
▁運び	-12.5781
ーター	-12.5785
▁k	-12.5788
▁フェンス	-12.5789
▁建てる	-12.5793
ゴー	-12.5793
▁すん	-12.5794
▁ディック	-12.5803
タリア	-12.5804
▁泡	-12.5806
つけ	-12.5814
PI	-12.5816
▁拠	-12.5825
騰	-12.5832
▁負い	-12.5834
ッスル	-12.5835
后	-12.5836
蔽	-12.5836
瀋	-12.5836
綺	-12.5836
蛋	-12.5836
▁麗	-12.5837
ネラル	-12.5837
條	-12.5846
▁エアー	-12.5848
叡	-12.5849
▁呪	-12.5851
運転	-12.5853
討	-12.5853
ータ	-12.5854
▁物産	-12.5855
▁鍛	-12.5864
▁渦	-12.5864
▁袁	-12.5866
▁飴	-12.5866
バレー	-12.5866
ファスト	-12.5866
▁ひろ	-12.5868
純	-12.587
▁惜し	-12.5873
アント	-12.5877
▁乏し	-12.5877
▁上訴	-12.5878
▁薨去	-12.5878
▁完投	-12.5878
▁否認	-12.5878
▁普請	-12.5878
▁抑留	-12.5878
▁丞相	-12.5878
▁環礁	-12.5879
▁追随	-12.5879
▁n	-12.5879
▁断崖	-12.5879
▁コケ	-12.5879
▁夕食	-12.5879
▁賢治	-12.5879
▁マー	-12.588
▁シカ	-12.588
▁圧勝	-12.5881
▁縁起	-12.5882
▁漁村	-12.5882
▁大隈	-12.5883
▁続出	-12.5883
▁大晦日	-12.5884
▁敢えて	-12.5884
▁和声	-12.5884
▁ムード	-12.5884
▁日蓮宗	-12.5884
▁MBA	-12.5885
▁コナン	-12.5885
高い	-12.5885
▁下宿	-12.5885
▁ロッド	-12.5885
▁着想	-12.5885
▁パブ	-12.5885
▁ダニー	-12.5886
▁レノン	-12.5888
▁退会	-12.5888
▁脚色	-12.5888
▁スイング	-12.5888
▁スナック	-12.5888
▁露天風呂	-12.5888
▁ハリソン	-12.5888
▁ハッピー	-12.5888
▁ベネット	-12.5888
▁ペイント	-12.5888
▁見下ろす	-12.5888
▁公布	-12.5889
▁青空	-12.5889
▁正会員	-12.5889
▁オーガスタ	-12.589
▁相変わらず	-12.589
▁ぬいぐるみ	-12.589
▁解法	-12.5891
▁エイリアン	-12.5891
▁ニューカ	-12.5891
▁難しかっ	-12.5891
▁事故死	-12.5891
▁モーメント	-12.5891
▁葉状	-12.5892
▁ジェット機	-12.5892
▁アスキー	-12.5892
▁フェミニスト	-12.5892
▁マクスウェル	-12.5892
▁アーチェリー	-12.5892
▁ガイドブック	-12.5892
▁ケープタウン	-12.5892
▁ナショナリズム	-12.5894
▁カーリング	-12.5894
▁ベルン	-12.5894
▁横浜ベイスターズ	-12.5895
▁リヒテンシュタイン	-12.5895
▁実母	-12.5896
▁一式	-12.5896
▁レーシングドライバー	-12.5896
▁シリアル	-12.5896
▁ゴールデンイーグルス	-12.5896
▁組曲	-12.5897
▁自害	-12.5898
▁出かける	-12.5899
▁モンス	-12.59
▁アビ	-12.59
▁醍醐	-12.5902
▁癒し	-12.5902
腫瘍	-12.5903
▁プロレ	-12.5905
▁携わり	-12.5906
才	-12.5907
▁大脳	-12.5907
▁大仏	-12.5907
▁美術家	-12.5908
入り	-12.591
▁数多	-12.5915
▁むら	-12.5916
▁ホーク	-12.5919
▁ペナン	-12.5921
▁彼氏	-12.5922
▁公平	-12.5923
ハンマ	-12.5926
▁継ぎ	-12.5927
夏	-12.5929
▁キャニオン	-12.593
▁多元	-12.593
▁ザ	-12.5932
厳	-12.5939
▁図面	-12.5945
▁名産	-12.5948
どき	-12.5955
▁奪い	-12.5956
プリカ	-12.5957
ルペン	-12.5966
▁かたち	-12.5974
▁磯	-12.5976
国語	-12.5978
▁傍	-12.598
▁木本	-12.5981
▁帥	-12.5984
ネオ	-12.5986
▁エロ	-12.5987
渇	-12.5988
トロ	-12.5988
▁止	-12.5994
▁木津	-12.6
▁けっ	-12.6008
▁アミ	-12.6008
戒	-12.6011
錯	-12.6027
施	-12.6041
▁同色	-12.6044
▁衡	-12.6045
▁カンテ	-12.6045
交通	-12.6056
ルドバ	-12.6058
ピング	-12.6066
墾	-12.6068
灸	-12.6068
豫	-12.6068
TA	-12.6074
▁総合大学	-12.6077
ルーレット	-12.6078
[...]
